, 191232
. 162141
the 134601
and 96582
to 78620
of 73780
a 70820
that 59923
i 53297
in 51447
it 49396
you 45824
we 42076
is 42004
&apos;s 36484
this 32181
so 23534
&quot; 22975
they 20987
was 19024
for 18920
on 18905
-- 18861
are 17934
have 17308
what 17128
but 16773
with 15986
can 15380
? 14220
&apos;t 14074
about 13705
there 13594
as 13128
at 12931
be 12898
all 12565
do 11695
not 11552
one 11407
an 11012
&apos;re 10915
my 10851
people 10662
if 10242
like 10127
from 10052
he 9611
or 9590
now 9333
these 9027
just 8903
our 8496
: 8419
because 8229
when 8197
very 8172
me 7913
out 7832
how 7706
by 7672
know 7404
up 7394
them 7322
going 7173
which 6897
more 6764
here 6762
think 6690
had 6686
see 6636
who 6353
us 6341
your 6341
really 6273
their 6224
ed 6185
ing 6176
get 6146
then 6096
would 6073
were 6012
&apos;ve 5961
re@@ 5855
world 5767
time 5653
some 5606
&apos;m 5581
has 5343
way 5336
actually 5287
don 5265
into 5199
where 5056
things 4976
go 4887
years 4875
will 4858
other 4661
no 4531
well 4523
could 4509
es 4503
want 4442
-@@ 4396
make 4338
been 4270
said 4246
right 4241
she 4076
something 4053
s 3892
y 3873
two 3857
first 3852
in@@ 3822
than 3804
those 3790
look 3770
his 3723
thing 3668
little 3647
new 3614
got 3599
also 3566
c@@ 3532
much 3501
back 3461
s@@ 3442
life 3440
work 3424
say 3401
; 3396
most 3379
over 3376
a@@ 3246
only 3228
even 3191
take 3159
e@@ 3150
kind 3134
un@@ 3071
able 3050
many 3027
did 2997
need 2990
good 2941
ti@@ 2895
lot 2888
al 2867
why 2862
around 2854
down 2818
come 2811
let 2805
&apos;ll 2757
ted 2751
o@@ 2747
d@@ 2741
different 2721
through 2700
every 2681
use 2658
day 2656
t@@ 2654
her 2651
i@@ 2556
de@@ 2538
ts 2484
being 2483
p@@ 2481
put 2462
same 2438
its 2433
doing 2415
g@@ 2379
co@@ 2359
y@@ 2331
con@@ 2316
e 2292
three 2291
li@@ 2286
b@@ 2247
called 2238
en@@ 2222
ated 2204
any 2198
ma@@ 2194
made 2151
percent 2144
di@@ 2142
&apos;d 2139
u@@ 2117
talk 2108
er 2105
today 2079
great 2077
after 2072
m 2046
tell 2019
ar@@ 2015
year 1966
human 1954
ly 1949
o 1934
po@@ 1925
big 1911
fact 1910
find 1907
ers 1904
another 1898
ri@@ 1886
ate 1877
last 1870
p 1870
own 1863
ds 1853
change 1852
idea 1842
se@@ 1822
didn 1819
dis@@ 1812
should 1811
m@@ 1808
before 1798
give 1793
went 1792
started 1776
thought 1773
al@@ 1770
ation 1768
le@@ 1755
ro@@ 1755
pro@@ 1748
ting 1744
le 1743
an@@ 1742
d 1732
off 1727
t 1723
tions 1721
l@@ 1705
v@@ 1699
never 1697
better 1691
man 1691
ve 1689
again 1682
story 1681
important 1679
course 1678
end 1674
k@@ 1659
r@@ 1652
th@@ 1642
system 1639
does 1637
problem 1635
ch@@ 1634
te 1631
him 1621
show 1621
might 1615
as@@ 1614
water 1611
next 1609
h@@ 1606
start 1605
each 1601
place 1601
ago 1597
part 1593
together 1585
used 1582
still 1581
brain 1575
c 1571
thank 1570
f@@ 1568
technology 1567
came 1561
ac@@ 1559
st@@ 1546
bit 1544
ad@@ 1533
or@@ 1523
&apos; 1495
com@@ 1489
lo@@ 1488
ra@@ 1486
pre@@ 1479
long 1478
between 1466
se 1466
ating 1463
on@@ 1457
few 1454
ous 1454
si@@ 1449
looking 1448
mean 1446
too 1445
children 1436
point 1432
ex@@ 1412
maybe 1399
ever 1393
done 1392
try 1391
bi@@ 1381
sh@@ 1379
sort 1379
found 1371
doesn 1364
less 1361
question 1353
school 1351
ding 1348
whole 1345
love 1344
red 1340
data 1335
example 1334
bo@@ 1331
it@@ 1326
w@@ 1326
vi@@ 1322
light 1320
ce 1319
mi@@ 1315
understand 1310
may 1309
el@@ 1308
wanted 1300
using 1296
am 1293
four 1292
ke 1287
live 1285
at@@ 1284
real 1271
working 1270
pe@@ 1266
ta@@ 1266
ded 1262
million 1262
ct 1259
away 1256
im@@ 1255
women 1254
call 1248
trying 1247
tion 1246
old 1240
be@@ 1239
k 1239
person 1231
ty 1228
believe 1224
de 1224
money 1224
everything 1223
ic 1220
g 1219
10 1216
pi@@ 1216
always 1212
ally 1211
kids 1208
feel 1206
ent 1205
age 1199
per@@ 1196
ction 1192
power 1190
est 1187
ks 1184
sc@@ 1182
design 1178
five 1178
als 1173
country 1173
l 1171
ab@@ 1167
help 1166
space 1161
comes 1145
h 1137
number 1136
thinking 1136
times 1133
am@@ 1132
car@@ 1126
create 1126
ary 1123
took 1122
me@@ 1117
second 1116
sense 1108
food 1107
energy 1106
information 1104
making 1103
means 1098
ni@@ 1094
n@@ 1092
! 1087
city 1086
ves 1080
b 1079
future 1074
op@@ 1072
become 1071
quite 1071
j@@ 1069
par@@ 1069
getting 1066
ck 1063
es@@ 1063
mo@@ 1062
says 1057
enough 1056
building 1055
la@@ 1054
to@@ 1052
side 1050
probably 1049
mar@@ 1047
king 1046
science 1044
best 1043
bu@@ 1043
small 1042
play 1033
ons 1031
um 1027
ter 1026
gra@@ 1022
no@@ 1022
ne@@ 1020
without 1020
ine 1019
ability 1015
ant 1013
talking 1011
body 1010
social 1010
interesting 1007
left 1007
w 1001
stuff 998
su@@ 997
room 996
home 995
der 989
ist 985
happened 983
er@@ 981
ses 980
africa 977
dollars 976
ways 975
do@@ 973
tic 973
men 971
coming 969
ties 968
art 966
th 965
tra@@ 963
half 962
em@@ 961
care 957
earth 954
form 953
anything 952
ask 946
build 943
is@@ 943
pa@@ 943
ge@@ 938
tive 937
line 934
cted 933
ies 933
pretty 933
x 931
while 930
goes 929
set 929
te@@ 929
lives 928
ar 925
hi@@ 925
move 924
across 923
seen 923
days 918
living 917
makes 917
simple 916
told 909
ment 908
cor@@ 907
inter@@ 905
ok 903
basically 901
20 899
such 899
ble 898
happen 896
case 891
ps 891
min@@ 890
once 889
saw 888
countries 886
ver@@ 885
project 881
book 880
else 878
yet 876
hand 875
health 874
ch 872
fi@@ 872
picture 872
des 869
bad 866
imagine 865
ance 862
moment 860
mind 858
sa@@ 857
problems 856
happens 852
okay 852
having 851
so@@ 849
hard 848
for@@ 843
experience 840
car 838
fe@@ 837
oh 837
asked 836
sure 836
learn 835
ms 835
ho@@ 834
high 832
ideas 832
later 830
family 826
global 826
z@@ 826
n 824
inside 823
computer 820
ir@@ 819
mon@@ 819
ci@@ 816
process 815
ged 814
ors 814
ones 812
planet 811
young 811
everybody 809
nature 809
both 807
ck@@ 807
six 806
ful 804
reason 802
business 801
states 801
nothing 800
cy 799
tri@@ 799
.@@ 798
saying 794
ely 793
almost 787
billion 787
ins 787
history 785
per 784
within 784
son 782
ter@@ 781
he@@ 777
cu@@ 776
far 773
50 772
top 771
ha@@ 770
cells 768
over@@ 768
whether 768
child 767
f 767
looks 767
ol@@ 767
already 766
ings 765
single 765
ity 762
gu@@ 761
sing 761
wrong 761
remember 758
bring 756
ws 756
state 755
music 754
ans 753
keep 752
guy 751
land 750
true 742
ul@@ 742
cancer 740
under@@ 738
war 738
looked 735
hope 734
heard 733
ca@@ 732
under 731
beautiful 730
du@@ 729
r 729
gets 728
&amp; 727
order 727
qu@@ 727
sub@@ 727
matter 726
zed 726
3@@ 725
often 723
her@@ 722
face 721
possible 721
open 719
mu@@ 718
piece 718
ent@@ 717
house 716
answer 714
months 713
read 713
sts 713
yes 713
pri@@ 709
30 708
gi@@ 708
ging 706
late 705
sp@@ 703
built 702
group 702
che@@ 701
stories 700
someone 699
public 698
amazing 697
india 697
works 697
universe 696
community 695
taking 694
united 694
trans@@ 693
ze 693
0s 692
da@@ 691
video 691
ars 689
instead 689
god 688
until 688
myself 684
since 684
research 682
ourselves 681
ved 681
head 680
isn 680
words 678
places 676
sta@@ 676
sometimes 674
tu@@ 674
col@@ 673
education 673
x@@ 673
species 669
couple 668
government 668
ving 665
decided 663
out@@ 663
pres@@ 663
language 662
sur@@ 662
somebody 660
4@@ 659
ates 659
control 659
turn 658
les 657
den@@ 656
ents 653
led 653
na@@ 652
pl@@ 652
... 651
ur@@ 651
though 650
d-@@ 648
night 648
rather 648
kinds 647
ste@@ 646
ces 645
can@@ 643
ness 643
heart 642
level 642
mis@@ 642
tional 642
man@@ 640
turns 640
ge 639
happy 639
internet 639
rate 635
fo@@ 634
cre@@ 633
middle 633
ence 632
mother 632
sion 632
ber@@ 631
completely 631
ph@@ 631
exactly 630
word 630
everyone 629
minutes 629
ot@@ 627
je@@ 625
stop 624
woman 624
job 623
yeah 622
must 621
res@@ 620
dra@@ 619
fa@@ 619
wasn 619
large 618
students 618
br@@ 616
cks 616
front 616
re 616
themselves 615
share 613
became 612
ments 612
model 612
om@@ 612
ations 610
run 610
society 610
animals 609
game 609
itself 609
ru@@ 606
act 605
ined 605
jo@@ 605
learned 605
company 604
happening 604
created 603
ju@@ 602
name 600
news 599
&#91; 598
&#93; 598
study 598
y-@@ 598
et@@ 597
100 596
wa@@ 596
america 593
el 591
hear 591
huge 590
table 590
environment 589
friends 588
il@@ 587
oil 587
systems 587
third 587
view 585
disease 584
ling 584
bar@@ 583
natural 583
shows 583
century 582
won 582
hours 581
cr@@ 580
guys 580
knew 577
worked 576
sen@@ 575
go@@ 574
et 573
american 572
china 572
along 570
har@@ 570
perhaps 570
sha@@ 570
ag@@ 569
couldn 569
stic 569
ten@@ 569
em 568
particular 568
ger 567
questions 567
market 565
moving 565
ters 563
fish 562
area 561
based 561
during 560
figure 560
sound 560
early 559
flo@@ 559
gave 559
air 558
cur@@ 557
gh@@ 557
others 555
past 555
turned 555
against 554
cra@@ 554
lin@@ 554
sed 554
self-@@ 554
ked 553
learning 553
sted 553
wing 553
gs 551
takes 546
sti@@ 545
lots 544
wi@@ 544
ocean 543
zing 542
sho@@ 541
cts 540
finally 540
um@@ 540
war@@ 540
ali@@ 538
cell 538
micro@@ 538
test 538
known 537
us@@ 537
least 536
st 535
cal 534
scale 533
outside 531
ap@@ 529
culture 528
machine 528
free 527
tation 527
taken 526
au@@ 523
difference 523
entire 523
father 523
seven 522
ture 522
ator 520
sk@@ 520
wonderful 520
needs 519
stri@@ 519
15 518
thousands 517
ics 516
tor@@ 516
des@@ 514
population 513
powerful 512
close 511
e-@@ 511
ground 511
ying 511
parts 509
pos@@ 509
we@@ 509
cing 508
whatever 506
yourself 506
bur@@ 502
phone 502
key 501
ga@@ 499
grow 498
seeing 497
1@@ 496
certain 496
ry 496
ce@@ 495
bor@@ 493
parents 493
ess 492
changed 491
behind 490
interested 490
ges 489
tr@@ 489
2 488
leave 488
ches 487
ev@@ 487
beginning 486
eyes 486
force 486
given 486
spend 486
walk 485
audience 484
cost 484
easy 484
stage 484
super@@ 484
size 483
stor@@ 483
york 483
ism 482
difficult 481
economic 481
image 481
ure 481
terms 480
green 479
pped 479
amount 478
cannot 478
began 477
ari@@ 476
ec@@ 475
media 475
center 474
gl@@ 474
rest 474
ia 473
common 472
death 472
local 472
team 472
full 471
dy 470
id 470
wor@@ 470
7@@ 469
eight 469
fly 469
ser@@ 469
va@@ 468
and@@ 467
bri@@ 466
ou@@ 466
ver 466
cri@@ 465
5@@ 464
off@@ 464
tion@@ 464
hu@@ 461
gone 460
20@@ 459
hands 459
black 458
ously 458
buy 457
ic@@ 457
week 457
ned 456
needed 456
books 455
fu@@ 455
deal 454
friend 453
gr@@ 453
cting 452
paper 452
simply 452
value 452
cally 451
low 451
realized 451
mit 450
cities 449
field 449
tried 449
born 448
rec@@ 447
cho@@ 446
dly 446
lt 446
ology 446
ders 445
forward 444
der@@ 443
longer 443
u 443
either 442
humans 442
pen@@ 442
step 442
spent 441
wh@@ 441
growth 440
ven@@ 440
char@@ 439
dan@@ 439
national 439
hold 438
feet 437
ase 436
companies 436
fin@@ 436
ship 436
6@@ 435
incredible 435
coun@@ 434
ie 434
surface 434
lation 432
mor@@ 432
quickly 432
watch 432
dna 431
ice 431
lost 430
pu@@ 430
cap@@ 429
clo@@ 428
sitting 428
structure 428
up@@ 428
behavior 427
complex 427
girl 427
pay 427
tan@@ 426
wouldn 426
growing 425
ja@@ 425
dri@@ 424
40 423
blue 423
clear 423
economy 422
knowledge 421
met 421
miles 421
19@@ 420
ality 420
felt 420
8@@ 417
pt 417
west 417
white 417
eat 416
fl@@ 414
9@@ 413
ical 413
kes 413
giving 412
sea 412
brought 411
reality 411
ys 411
ell@@ 410
stra@@ 410
technologies 410
bs 409
fun 409
ining 409
opportunity 409
political 409
south 409
cked 408
ma 408
nu@@ 408
str@@ 408
/ 407
changes 407
els 407
developed 406
ger@@ 406
8 405
die 405
weeks 405
3 404
scientists 404
wrote 404
pla@@ 403
poor 402
anyone 401
ats 401
pur@@ 401
animal 400
ens 400
equ@@ 400
mer@@ 400
starting 400
sting 400
street 400
tur@@ 399
telling 398
write 398
cut 397
fast 397
personal 397
feeling 396
patient 396
squ@@ 396
bed 395
cking 395
patients 394
theory 394
images 391
morning 391
playing 391
u.s. 391
yo@@ 391
program 390
und@@ 390
climate 389
gives 389
attention 388
gener@@ 388
inten@@ 388
nice 388
4 387
air@@ 387
average 387
ei@@ 387
sun 387
cy@@ 386
literally 385
mate 385
produce 385
spi@@ 384
areas 383
material 383
short 383
forms 382
numbers 382
understanding 382
cer@@ 381
vo@@ 381
cul@@ 380
fully 380
tical 380
yed 380
,000 379
ched 379
discovered 379
por@@ 379
speak 379
bio@@ 378
cars 378
non-@@ 378
seems 378
the@@ 378
ba@@ 377
mil@@ 377
ori@@ 377
board 376
bottom 376
ently 376
hand@@ 376
ard 375
eg@@ 375
fied 375
main 375
vision 375
7 374
film 374
tools 374
access 373
alone 373
creating 373
realize 373
ster@@ 373
challenge 372
mine 372
ths 372
tro@@ 372
bra@@ 371
dro@@ 371
pping 371
deep 370
ke@@ 370
normal 370
ton 370
tru@@ 370
1 369
changing 369
physical 369
6 368
lu@@ 368
ning 368
ented 367
died 366
12 365
colle@@ 365
law 365
developing 364
ster 364
bes 363
bl@@ 363
movement 363
gro@@ 361
individual 361
map 361
uses 361
shape 360
ther 360
ban@@ 359
gen@@ 359
millions 359
absolutely 358
nobody 358
recently 358
sive 358
auth@@ 357
fac@@ 357
girls 357
ctions 356
gers 356
ob@@ 356
running 356
head@@ 355
relationship 355
eth@@ 354
hundreds 354
dark 353
focus 352
ns 352
wish 352
dic@@ 351
industry 351
modern 351
swe@@ 351
ement 350
lab 350
result 350
web 350
box 349
cla@@ 349
tend 349
wall 349
connected 348
ingly 348
major 348
obviously 348
showed 348
cli@@ 347
dar@@ 347
designed 347
quality 347
vis@@ 347
9 346
available 346
development 346
english 346
incredibly 346
knows 346
lar@@ 346
medical 346
physi@@ 346
tors 346
product 345
soon 345
anybody 344
compassion 344
pe 344
solution 344
generation 343
innovation 343
position 343
seem 343
cat@@ 342
especially 342
est@@ 342
pan@@ 342
solve 342
don@@ 341
cool 340
ill 340
moved 340
tiny 340
chinese 339
effect 339
haven 339
revolution 339
evolution 338
experiment 338
ker 338
north 338
stand 338
199@@ 337
becomes 337
blood 337
save 337
talked 337
vers 337
bigger 336
likely 336
writing 336
2@@ 335
cal@@ 335
class 335
cop@@ 335
dat@@ 335
den 335
support 335
kid 334
mental 334
allow 333
she@@ 333
25 332
begin 332
online 332
resources 332
tes 332
wal@@ 332
wn 332
psych@@ 331
fra@@ 330
issue 330
materials 330
perfect 330
security 330
europe 329
happiness 329
impact 329
oper@@ 329
sters 329
tics 329
type 329
explain 328
meet 328
od@@ 328
prin@@ 328
ther@@ 328
bas@@ 327
computers 327
guess 327
hour 327
ig@@ 327
lived 327
wer 327
all@@ 326
mass 326
present 326
university 326
beyond 325
continu@@ 325
deli@@ 325
fall 325
please 325
reasons 325
scientific 325
— 325
aren 324
cles 324
dead 324
device 324
medi@@ 324
drive 323
games 323
gre@@ 323
network 323
pictures 323
active 322
fear 322
ff@@ 322
groups 322
putting 322
star@@ 322
ced 321
color 321
cro@@ 321
east 321
gt 321
office 321
source 321
dr@@ 320
rules 320
digital 319
pac@@ 319
schools 319
hor@@ 318
sli@@ 318
town 318
ared 317
teach 317
situation 316
voice 316
fil@@ 315
general 315
ment@@ 315
several 315
sions 315
5 314
fir@@ 314
lines 314
ll@@ 314
mal@@ 314
sal@@ 314
similar 314
teachers 314
basic 313
involved 313
vent@@ 313
worth 313
ically 312
action 311
baby 311
boy 311
os 311
syn@@ 311
tells 311
inv@@ 310
projects 310
special 310
en 309
mp@@ 309
onto 309
suddenly 309
eless 308
il 308
mission 308
pal@@ 308
particularly 308
road 308
ted@@ 308
chance 307
comp@@ 307
door 307
activity 306
issues 306
sel@@ 306
towards 306
ve@@ 306
appe@@ 305
eye 305
risk 305
robot 305
ad 304
asking 304
evidence 304
gue 304
wind 304
ching 303
enter@@ 303
mic 303
cket 302
minute 302
11 301
asi@@ 301
dec@@ 301
hit 301
hundred 301
ls 301
ped 301
solar 301
tic@@ 301
truth 301
60 300
explor@@ 300
vel@@ 299
certainly 298
clu@@ 298
ill@@ 298
ative 297
list 297
moral 297
object 297
pas@@ 297
sounds 297
starts 297
80 296
break 296
carbon 296
impro@@ 296
indeed 296
om 296
prote@@ 296
recor@@ 296
whe@@ 296
everywhere 295
lea@@ 295
message 295
positive 295
talks 295
cam@@ 294
cations 294
fer 294
hal@@ 294
men@@ 294
stay 294
wants 294
ber 293
sil@@ 293
software 293
wait 293
wo@@ 293
anyway 292
choice 292
cin@@ 292
month 292
plants 292
strong 292
brea@@ 291
listen 291
nine 291
speed 291
code 290
tre@@ 290
version 290
tives 289
formed 288
grand@@ 288
reach 288
ature 287
bon@@ 287
cs 287
fer@@ 287
journey 287
showing 287
spo@@ 287
ust 287
village 287
walking 287
econom@@ 286
pattern 286
potential 286
sent 286
measure 285
period 285
poli@@ 285
uni@@ 285
ators 284
examples 284
gar@@ 284
high-@@ 284
notice 284
top@@ 284
ures 284
college 283
exc@@ 283
further 283
row 283
send 283
add 282
biggest 282
bot@@ 282
totally 282
ably 281
google 281
my@@ 281
skin 281
smart 281
ye@@ 281
blo@@ 280
ler 280
ligh@@ 280
medicine 280
nuclear 280
t-@@ 280
teacher 280
chan@@ 279
posed 279
sig@@ 279
sit 279
student 279
among 278
develop 278
extraordinary 278
fire 278
gri@@ 278
mes 278
back@@ 277
ences 277
exciting 277
fri@@ 277
interest 277
loo@@ 277
tun@@ 277
ases 276
democracy 276
stat@@ 276
bat@@ 275
bel@@ 275
cultural 275
dou@@ 275
grew 275
matic 275
ner 275
pick 275
plan 275
ready 275
alized 274
ended 274
named 274
page 274
san@@ 274
success 274
continue 273
gas 273
lead 273
nor@@ 273
objects 273
self 273
cent 272
cian 272
hospital 272
standing 272
store 272
z 272
18@@ 271
ants 271
approach 271
da 271
jobs 271
buildings 270
creative 270
david 270
far@@ 270
follow 270
han@@ 270
poverty 270
products 270
pul@@ 270
rich 270
sing@@ 270
acc@@ 269
aging 269
cause 269
ctive 269
extremely 269
hiv 269
hop@@ 269
ing@@ 269
lose 269
ore 269
points 269
dance 268
ot 268
peace 268
tle 268
visual 268
except 267
international 267
older 267
sun@@ 267
tically 267
500 266
largest 266
tat@@ 266
vie@@ 266
watching 266
arm 265
cies 265
foot 265
ini@@ 265
results 265
usually 265
yp@@ 265
200 264
essentially 264
ession 264
eventually 264
tal 264
ner@@ 263
ral 263
regi@@ 263
safe 263
trees 263
esti@@ 262
organization 262
ren@@ 262
smo@@ 262
ani@@ 261
electricity 261
impossible 261
series 261
spread 261
bro@@ 260
camera 260
cru@@ 260
foot@@ 260
minds 260
serious 260
dete@@ 259
higher 259
movie 259
sex 259
shown 259
tly 259
bom@@ 258
expect 258
ish 258
obser@@ 258
somehow 258
biology 257
traditional 257
und 257
doctor 256
ele@@ 256
med 256
ony 256
sam@@ 256
somewhere 256
xi@@ 256
individuals 255
ming 255
ots 255
training 255
african 254
brains 254
conditions 254
electr@@ 254
ines 254
larger 254
meaning 254
sell 254
truly 254
allowed 253
sorts 253
taught 253
wards 253
wife 253
written 253
ages 252
crazy 252
ered 252
expensive 252
infe@@ 252
leaders 252
models 252
ow@@ 252
shot 252
sus@@ 252
thre@@ 252
tively 252
cover 251
ils 251
mom 251
perspective 251
studies 251
trust 251
above 250
beauty 250
crisis 250
plant 250
site 250
therefore 250
tree 250
wed 250
bal@@ 249
conver@@ 249
ght 249
goal 249
including 249
ine@@ 249
mm@@ 249
pers 249
reading 249
refle@@ 249
sou@@ 249
sto@@ 249
thousand 249
ward 249
complicated 248
dent 248
excited 248
production 248
stars 248
drugs 247
finding 247
fine 247
flu@@ 247
killed 247
upon 247
architecture 246
bacteria 246
belie@@ 246
faces 246
favorite 246
mit@@ 246
ran@@ 246
cen@@ 245
communities 245
connect 245
dream 245
essi@@ 245
faster 245
fli@@ 245
rel@@ 245
18 244
fy 244
region 244
seconds 244
fantastic 243
income 243
lon@@ 243
screen 243
struc@@ 243
ey 242
main@@ 242
square 242
supposed 242
tool 242
touch 242
wat@@ 242
drug 241
enti@@ 241
famous 241
fre@@ 241
kill 241
mal 241
mechan@@ 241
worse 241
hon@@ 240
ki@@ 240
ute 240
vation 240
zero 240
ama@@ 239
ast 239
cle@@ 239
ed@@ 239
humanity 239
meant 239
neuro@@ 239
pieces 239
role 239
dad 238
fight 238
math 238
range 238
sky 238
alive 237
anti@@ 237
ball 237
bodies 237
families 237
fla@@ 237
mas@@ 237
provi@@ 237
violence 237
dist@@ 236
fundamental 236
price 236
service 236
throughout 236
bul@@ 235
down@@ 235
himself 235
one-@@ 235
ops 235
person@@ 235
rele@@ 235
response 235
ta 235
treatment 235
aff@@ 234
cases 234
healthy 234
hot 234
neurons 234
sh 234
skills 234
swi@@ 234
tor 234
western 234
ak 233
bunch 233
content 233
successful 233
although 232
genes 232
military 232
pain 232
rise 232
three-@@ 232
ak@@ 231
clearly 231
hy@@ 231
inclu@@ 231
kept 231
lies 231
resi@@ 231
virus 231
win 231
zation 231
cep@@ 230
recognize 230
sum@@ 230
ton@@ 230
freedom 229
rights 229
ris@@ 229
consi@@ 228
earlier 228
exp@@ 228
gh 228
hey 228
human@@ 228
liber@@ 228
ries 228
shor@@ 228
tou@@ 228
vari@@ 228
well-@@ 228
beings 227
context 227
del@@ 227
demon@@ 227
depen@@ 227
eu@@ 227
familiar 227
flow 227
ian 227
s-@@ 227
tain 227
to-@@ 227
vely 227
waste 227
allows 226
central 226
choose 226
fru@@ 226
inst@@ 226
listening 226
massive 226
oc@@ 226
physics 226
policy 226
strange 226
bing 225
contribu@@ 225
ful@@ 225
machines 225
power@@ 225
waiting 225
wonder 225
after@@ 224
americans 224
dness 224
extra@@ 224
fun@@ 224
patterns 224
smaller 224
wel@@ 224
actual 223
acy 223
concept 223
consider 223
driving 223
fro@@ 223
gotten 223
ham@@ 223
nan@@ 223
slow 223
treat 223
ach@@ 222
increase 222
ka@@ 222
ll 222
o-@@ 222
song 222
terri@@ 222
values 222
aid 221
ands 221
bre@@ 221
clean 221
engineering 221
ess@@ 221
ise 221
pra@@ 221
thanks 221
cl@@ 220
costs 220
draw 220
edi@@ 220
fr@@ 220
ited 220
magic 220
ners 220
pat@@ 220
plastic 220
record 220
related 220
anymore 219
dollar 219
intelligence 219
poin@@ 219
press 219
print 219
v 219
dog 218
president 218
tivity 218
weight 218
decisions 217
dr 217
ese 217
non@@ 217
produ@@ 217
rela@@ 217
respon@@ 217
robots 217
solutions 217
teaching 217
argu@@ 216
critical 216
current 216
exist 216
greater 216
hea@@ 216
mus@@ 216
0@@ 215
198@@ 215
ale 215
anywhere 215
conven@@ 215
diversity 215
docum@@ 215
forming 215
gen 215
liter@@ 215
museum 215
ray 215
repres@@ 215
surgery 215
win@@ 215
zen 215
zes 215
dangerous 214
ear@@ 214
however 214
invented 214
new@@ 214
ods 214
progress 214
star 214
tent 214
cent@@ 213
connection 213
cycle 213
im 213
photograph@@ 213
provide 213
remarkable 213
5,000 212
becoming 212
date 212
direction 212
forest 212
insi@@ 212
politics 212
protect 212
tin@@ 212
unded 212
understood 212
ant@@ 211
artist 211
ben@@ 211
conc@@ 211
effective 211
flying 211
ft 211
histor@@ 211
hole 211
john 211
mile 211
religion 211
st-@@ 211
travel 211
whose 211
app@@ 210
clim@@ 210
conversation 210
greatest 210
specific 210
tv 210
ame 209
bank 209
cou@@ 209
fuel 209
lations 209
quar@@ 209
re-@@ 209
reach@@ 209
rule 209
two-@@ 209
environmental 208
floor 208
genetic 208
gic 208
immediately 208
legs 208
practice 208
pull 208
pun@@ 208
shu@@ 208
slide 208
sustainable 208
walked 208
assu@@ 207
conference 207
fis@@ 207
irs 207
lower 207
shar@@ 207
website 207
aware 206
cians 206
divi@@ 206
forces 206
ghts 206
none 206
pit@@ 206
repor@@ 206
sequence 206
train 206
vic@@ 206
conser@@ 205
dd@@ 205
dom@@ 205
enormous 205
evolved 205
following 205
lat@@ 205
speaking 205
arch@@ 204
cha@@ 204
clin@@ 204
conclu@@ 204
creativity 204
glass 204
lab@@ 204
lights 204
lin 204
on-@@ 204
que 204
recogni@@ 204
scientist 204
services 204
various 204
ah 203
babies 203
boys 203
disappe@@ 203
fol@@ 203
forget 203
function 203
ha 203
hab@@ 203
land@@ 203
performance 203
produced 203
stick 203
television 203
tho@@ 203
useful 203
decade 202
dge 202
essed 202
lands 202
markets 202
nur@@ 202
raise 202
ran 202
scri@@ 202
stre@@ 202
temperature 202
thetic 202
ately 201
cold 201
comm@@ 201
directly 201
doctors 201
ial 201
photograph 201
ration 201
subject 201
suff@@ 201
wers 201
ads 200
chemical 200
consciousness 200
feed 200
glo@@ 200
institutions 200
mars 200
urban 200
70 199
alism 199
capit@@ 199
commit@@ 199
complete 199
ff 199
gene 199
grade 199
inspired 199
lau@@ 199
networks 199
occu@@ 199
played 199
qui@@ 199
types 199
unfortunately 199
weren 199
ima@@ 198
la 198
original 198
private 198
some@@ 198
birds 197
bly 197
ets 197
fund@@ 197
hi 197
industrial 197
ley 197
loved 197
phones 197
recent 197
survive 197
tt@@ 197
vac@@ 197
ahead 196
aids 196
chair 196
meeting 196
near 196
passion 196
pol@@ 196
police 196
shared 196
agree 195
alization 195
classi@@ 195
cour@@ 195
discover 195
final 195
forth 195
matically 195
pair 195
summer 195
ven 195
wir@@ 195
x-@@ 195
career 194
effects 194
funny 194
moon 194
oni@@ 194
sharing 194
societies 194
term 194
unique 194
0,000 193
conflict 193
destro@@ 193
fan@@ 193
fron@@ 193
levels 193
mp 193
publi@@ 193
stance 193
val@@ 193
vol@@ 193
arts 192
bes@@ 192
focused 192
helped 192
indian 192
mostly 192
net 192
pain@@ 192
park 192
path 192
sat 192
sy@@ 192
tex@@ 192
thro@@ 192
trade 192
below 191
ble@@ 191
entation 191
governments 191
mer 191
possibly 191
surro@@ 191
90 190
bringing 190
dig@@ 190
experiments 190
exten@@ 190
genome 190
obvious 190
radi@@ 190
search 190
sign 190
track 190
workers 190
16 189
actions 189
attra@@ 189
biological 189
expected 189
slo@@ 189
uring 189
agre@@ 188
ancient 188
daughter 188
decision 188
push 188
scre@@ 188
causes 187
challenges 187
cher 187
diseases 187
explore 187
kin@@ 187
mel@@ 187
mes@@ 187
plan@@ 187
pris@@ 187
son@@ 187
sorry 187
afghanistan 186
bill 186
ek 186
ologists 186
rever@@ 186
shi@@ 186
spe@@ 186
audi@@ 185
dest 185
exi@@ 185
explo@@ 185
financial 185
hom@@ 185
island 185
london 185
mobile 185
nation 185
paid 185
purpose 185
ash 184
capacity 184
character 184
diagno@@ 184
fit 184
green@@ 184
laws 184
memory 184
onic 184
pass 184
reali@@ 184
sleep 184
tac@@ 184
accu@@ 183
ased 183
balance 183
chi@@ 183
heat 183
ier 183
lan@@ 183
len@@ 183
multi@@ 183
na 183
ss 183
stream 183
vot@@ 183
300 182
bought 182
capital 182
closer 182
communication 182
etc 182
le-@@ 182
ological 182
rema@@ 182
slightly 182
wood 182
birth 181
era 181
event 181
fle@@ 181
instance 181
ken 181
mot@@ 181
ny 181
ple 181
sor@@ 181
stone 181
twice 181
domin@@ 180
dre@@ 180
eating 180
eli@@ 180
emotional 180
hed 180
ky 180
pp@@ 180
predic@@ 180
willing 180
0-@@ 179
a-@@ 179
ca 179
charge 179
complexity 179
decades 179
designers 179
hydro@@ 179
mul@@ 179
ours 179
party 179
quick 179
secret 179
spending 179
artists 178
ass 178
bits 178
chris 178
degrees 178
efficient 178
extra 178
hr@@ 178
infrastructure 178
leg@@ 178
ping 178
turning 178
ular 178
vering 178
address 177
analy@@ 177
auto@@ 177
circu@@ 177
demo@@ 177
ell 177
enting 177
ep 177
molecules 177
spec@@ 177
speci@@ 177
sphere 177
surprising 177
task 177
trouble 177
worry 177
yers 177
decide 176
dep@@ 176
differences 176
dy@@ 176
educ@@ 176
ory 176
published 176
ror 176
shed 176
sol@@ 176
techni@@ 176
tele@@ 176
drop 175
our@@ 175
q@@ 175
tas@@ 175
$ 174
,@@ 174
break@@ 174
carry 174
dea@@ 174
ency 174
fortun@@ 174
rock 174
sau@@ 174
significant 174
sin@@ 174
temp@@ 174
terrible 174
travel@@ 174
tremendous 174
zo@@ 174
achie@@ 173
broken 173
california 173
creates 173
hearing 173
hol@@ 173
ie@@ 173
memor@@ 173
neu@@ 173
sch@@ 173
trial 173
atmosphere 172
check 172
collabor@@ 172
devices 172
hing 172
popular 172
rooms 172
spa@@ 172
visu@@ 172
collap@@ 171
counter@@ 171
descri@@ 171
dying 171
edge 171
eding 171
glob@@ 171
illu@@ 171
meters 171
mr 171
nations 171
noticed 171
pressure 171
straight 171
work@@ 171
acting 170
al-@@ 170
blind 170
cros@@ 170
dence 170
improve 170
mark 170
race 170
stances 170
supply 170
yer 170
citizens 169
coffee 169
communicate 169
corner 169
farmers 169
fying 169
ken@@ 169
nearly 169
programs 169
shel@@ 169
standard 169
vor@@ 169
10,000 168
197@@ 168
const@@ 168
ko@@ 168
low-@@ 168
musli@@ 168
passed 168
process@@ 168
ung@@ 168
ambi@@ 167
asia 167
choices 167
gui@@ 167
helping 167
meas@@ 167
oxygen 167
return 167
seemed 167
tar@@ 167
worst 167
year-old 167
&apos;@@ 166
-year-old 166
ards 166
calls 166
cious 166
easily 166
emer@@ 166
ening 166
fig@@ 166
flies 166
lets 166
ority 166
ous@@ 166
pr@@ 166
radio 166
sla@@ 166
structures 166
thes@@ 166
tory 166
acade@@ 165
apart 165
basis 165
frequ@@ 165
justice 165
mat@@ 165
mountain 165
richard 165
stics 165
answers 164
arti@@ 164
ath@@ 164
consu@@ 164
ells 164
foundation 164
ide@@ 164
ignor@@ 164
imag@@ 164
law@@ 164
organi@@ 164
repe@@ 164
responsibility 164
sac@@ 164
tab@@ 164
tissue 164
wei@@ 164
14 163
ables 163
arb@@ 163
centi@@ 163
figured 163
identi@@ 163
notion 163
painting 163
part@@ 163
reg@@ 163
sand 163
shift 163
stration 163
studying 163
suppor@@ 163
sym@@ 163
tially 163
total 163
1,000 162
accep@@ 162
accoun@@ 162
bil@@ 162
corpo@@ 162
crimin@@ 162
flight 162
hair 162
highly 162
phenomenon 162
prison 162
sle@@ 162
yellow 162
despite 161
fs 161
indi@@ 161
lie 161
mix@@ 161
mming 161
organizations 161
planets 161
ra 161
rain 161
religious 161
text 161
argument 160
colleagues 160
condition 160
conne@@ 160
definition 160
flu 160
giant 160
hun@@ 160
ink 160
iraq 160
knowing 160
lam@@ 160
pose 160
pounds 160
stopped 160
1.@@ 159
achieve 159
algorith@@ 159
assem@@ 159
dents 159
diver@@ 159
fication 159
fix 159
held 159
invol@@ 159
kil@@ 159
leading 159
lic@@ 159
meter 159
profit 159
roll@@ 159
sites 159
stron@@ 159
bridge 158
cas@@ 158
civil 158
electric 158
hero@@ 158
ists 158
limit@@ 158
mur@@ 158
ne 158
necessary 158
organisms 158
particles 158
plac@@ 158
apo@@ 157
aspe@@ 157
attemp@@ 157
bla@@ 157
bran@@ 157
comfortable 157
dimensional 157
eng@@ 157
fair 157
fairly 157
feels 157
health@@ 157
inner 157
landscape 157
leads 157
necessarily 157
ordin@@ 157
possibility 157
reve@@ 157
scen@@ 157
ultimately 157
wee@@ 157
window 157
xes 157
architec@@ 156
boat 156
differently 156
electro@@ 156
ends 156
engine 156
finished 156
lying 156
mini@@ 156
moments 156
opportunities 156
ples 156
pus@@ 156
reduce 156
relationships 156
respect 156
saving 156
streets 156
benefit 155
cial 155
communic@@ 155
consum@@ 155
core 155
direc@@ 155
engage 155
foreign 155
gor@@ 155
graph 155
interact 155
join 155
sculp@@ 155
thir@@ 155
throw 155
arian 154
bled 154
custom@@ 154
iled 154
ina 154
lucky 154
missing 154
nutri@@ 154
ought 154
professor 154
ring 154
tail 154
tom 154
tures 154
wer@@ 154
afraid 153
attack 153
benefits 153
bird 153
designer 153
imagination 153
influence 153
japan 153
load 153
mc@@ 153
neighb@@ 153
oth 153
russi@@ 153
tter@@ 153
00@@ 152
bread 152
brings 152
bt 152
cell@@ 152
cide 152
competition 152
gical 152
hopefully 152
ick 152
mathematics 152
antly 151
bers 151
brilliant 151
calcu@@ 151
cir@@ 151
covered 151
engineers 151
ering 151
expla@@ 151
hes 151
ior 151
mani@@ 151
nar@@ 151
operation 151
organic 151
plo@@ 151
report 151
responsible 151
river 151
rou@@ 151
soli@@ 151
stem 151
tal@@ 151
adap@@ 150
afford 150
bling 150
coast 150
colors 150
effort 150
emotions 150
enter 150
female 150
fields 150
fighting 150
gol@@ 150
iran 150
jun@@ 150
logi@@ 150
members 150
mouse 150
ney 150
noise 150
ologist 150
ong 150
shares 150
thy 150
whi@@ 150
agriculture 149
bility 149
discovery 149
extreme 149
fashion 149
fold 149
forever 149
fur@@ 149
j 149
lesson 149
moves 149
negative 149
nel 149
passionate 149
puts 149
rain@@ 149
recei@@ 149
san 149
slowly 149
surge@@ 149
tech 149
trained 149
typical 149
wan@@ 149
attac@@ 148
compar@@ 148
conscious 148
creatures 148
engineer 148
extin@@ 148
hei@@ 148
hum@@ 148
matters 148
pic@@ 148
profound 148
quote 148
supp@@ 148
van@@ 148
visit 148
wild 148
wisdom 148
adults 147
ank 147
bac@@ 147
bees 147
cle 147
contra@@ 147
defen@@ 147
degree 147
expec@@ 147
experiences 147
gradu@@ 147
holding 147
ily 147
las@@ 147
measu@@ 147
prize 147
puzz@@ 147
resol@@ 147
tations 147
wonder@@ 147
10@@ 146
13 146
apply 146
appreci@@ 146
begins 146
bone 146
british 146
compu@@ 146
concent@@ 146
desert 146
elements 146
evol@@ 146
facebook 146
ght@@ 146
journ@@ 146
not@@ 146
raised 146
tan 146
ten 146
tial 146
walls 146
ast@@ 145
breast 145
capable 145
cheap 145
circle 145
combin@@ 145
constru@@ 145
deser@@ 145
distance 145
emplo@@ 145
galaxy 145
heads 145
importantly 145
legal 145
mothers 145
see@@ 145
seriously 145
sick 145
station 145
steps 145
suffering 145
tured 145
1,@@ 144
alize 144
billions 144
carto@@ 144
catch 144
ear 144
embra@@ 144
events 144
everyday 144
fascinating 144
fill 144
filled 144
helps 144
high@@ 144
loss 144
meat 144
modi@@ 144
reas@@ 144
ried 144
sector 144
sold 144
vement 144
zz@@ 144
24 143
base 143
cele@@ 143
contro@@ 143
describe 143
ep@@ 143
facili@@ 143
gene@@ 143
investment 143
motion 143
note 143
placed 143
prof@@ 143
respond 143
symme@@ 143
titude 143
vel 143
calcul@@ 142
compe@@ 142
french 142
func@@ 142
hat@@ 142
identity 142
invest 142
kee@@ 142
offer 142
sity 142
spring 142
tting 142
unt 142
vast 142
196@@ 141
deeply 141
economics 141
gras@@ 141
hel@@ 141
horri@@ 141
intelligent 141
labor 141
occur@@ 141
peri@@ 141
promise 141
rein@@ 141
statistics 141
studied 141
virtu@@ 141
vor 141
acceler@@ 140
aling 140
block 140
consumption 140
expres@@ 140
fal@@ 140
gos 140
inci@@ 140
powered 140
separ@@ 140
shouldn 140
sister 140
speak@@ 140
tom@@ 140
traffic 140
ales 139
allo@@ 139
brother 139
card 139
cham@@ 139
civilization 139
count 139
creation 139
crime 139
dem@@ 139
factory 139
ference 139
invest@@ 139
ishing 139
kl@@ 139
normally 139
principles 139
professional 139
protein 139
simpli@@ 139
thinks 139
transform 139
arc@@ 138
bus@@ 138
caught 138
concep@@ 138
dreams 138
entirely 138
ght-@@ 138
invi@@ 138
languages 138
leaving 138
magazine 138
mates 138
obs@@ 138
perfectly 138
predict 138
small@@ 138
spirit 138
virtual 138
17 137
according 137
activ@@ 137
article 137
campaign 137
ception 137
concerned 137
cont@@ 137
dolph@@ 137
dom 137
enjoy 137
fif@@ 137
gun 137
inno@@ 137
insects 137
link 137
opened 137
operating 137
ories 137
sudden 137
suit 137
ury 137
wave 137
addi@@ 136
agen@@ 136
and-@@ 136
background 136
beat 136
depression 136
desire 136
determin@@ 136
driven 136
due 136
easier 136
happ@@ 136
in-@@ 136
limited 136
plus 136
reser@@ 136
theater 136
therapy 136
transpor@@ 136
warming 136
400 135
argue 135
arms 135
commercial 135
constantly 135
disco@@ 135
generate 135
gentle@@ 135
impres@@ 135
ize 135
log@@ 135
male 135
ored 135
otherwise 135
philosop@@ 135
secon@@ 135
sis 135
sum 135
ves@@ 135
wear 135
wide 135
2,000 134
deliver 134
fellow 134
husband 134
increasingly 134
infin@@ 134
invisible 134
ites 134
milli@@ 134
molecule 134
paul 134
port 134
principle 134
sar@@ 134
sensor@@ 134
surprise 134
toward 134
val 134
wil@@ 134
50,000 133
bab@@ 133
cers 133
damage 133
define 133
distribu@@ 133
hear@@ 133
heli@@ 133
ite 133
jud@@ 133
majority 133
mouth 133
nam@@ 133
opposite 133
paint 133
participa@@ 133
photo 133
plane 133
posi@@ 133
prototyp@@ 133
seas@@ 133
shop 133
speech 133
spon@@ 133
tomorrow 133
u.@@ 133
advantage 132
atta@@ 132
belief 132
childhood 132
corruption 132
dynamic 132
equal 132
evil 132
facts 132
fourth 132
israel 132
jum@@ 132
lack 132
mexico 132
ph 132
photos 132
stuck 132
tis@@ 132
unless 132
whenever 132
worl@@ 132
classroom 131
designing 131
finger 131
gate 131
hidden 131
home@@ 131
institute 131
kid@@ 131
lic 131
organized 131
pher@@ 131
robo@@ 131
shif@@ 131
spaces 131
ty@@ 131
versus 131
wealth 131
wearing 131
wow 131
yesterday 131
airplane 130
believed 130
care@@ 130
challen@@ 130
church 130
co2 130
compared 130
electrical 130
galaxies 130
gas@@ 130
graduate 130
keeping 130
managed 130
metaphor 130
monit@@ 130
oceans 130
ordinary 130
path@@ 130
ressed 130
rid 130
roll 130
rural 130
spre@@ 130
subje@@ 130
sy 130
tough 130
treated 130
washington 130
200@@ 129
ace 129
ams 129
approach@@ 129
blu@@ 129
compli@@ 129
connec@@ 129
duc@@ 129
email 129
european 129
exhi@@ 129
exper@@ 129
failed 129
gather@@ 129
hate 129
independent 129
pages 129
satelli@@ 129
soil 129
strate 129
tural 129
ur 129
charles 128
compare 128
construction 128
continent 128
debate 128
dimensions 128
distribution 128
habit@@ 128
interven@@ 128
intervie@@ 128
oli@@ 128
partici@@ 128
paying 128
planning 128
practic@@ 128
prevent 128
secre@@ 128
sm@@ 128
succe@@ 128
survival 128
universal 128
viruses 128
affect 127
ang@@ 127
apple 127
atures 127
brand 127
ert 127
failure 127
followed 127
gry 127
ids 127
ka 127
leadership 127
letter 127
musi@@ 127
optimi@@ 127
predi@@ 127
proud 127
th-@@ 127
tran@@ 127
transl@@ 127
tumor 127
volunte@@ 127
wea@@ 127
weapons 127
weird 127
worried 127
ading 126
cognitive 126
drawing 126
end@@ 126
farm 126
gan@@ 126
hur@@ 126
hyper@@ 126
ii 126
ills 126
keys 126
rob@@ 126
shoes 126
signal 126
sl@@ 126
tens 126
toi@@ 126
urs 126
voices 126
waves 126
whom 126
activi@@ 125
actor 125
bar 125
bles 125
collective 125
cortex 125
einstein 125
expression 125
gain 125
ish@@ 125
joy 125
multiple 125
ol 125
option 125
plu@@ 125
preser@@ 125
prob@@ 125
producing 125
progra@@ 125
random 125
red@@ 125
ri 125
roman@@ 125
separate 125
shapes 125
thri@@ 125
vege@@ 125
vice 125
artificial 124
blin@@ 124
britain 124
cis@@ 124
cloud 124
dinner 124
generations 124
houses 124
imm@@ 124
invited 124
mag@@ 124
narra@@ 124
opening 124
pon@@ 124
represent 124
scan@@ 124
telescop@@ 124
unding 124
vote 124
wr@@ 124
ach 123
appro@@ 123
bed@@ 123
chap@@ 123
chemistry 123
copy 123
depres@@ 123
direct 123
exists 123
forced 123
friend@@ 123
interaction 123
jump 123
laun@@ 123
leader 123
leaves 123
match 123
mortality 123
negoti@@ 123
replic@@ 123
sec@@ 123
technologi@@ 123
threat 123
tter 123
ade 122
appli@@ 122
caused 122
consequences 122
cular 122
emotion 122
equivalent 122
gon@@ 122
harder 122
hasn 122
heavy 122
holes 122
incre@@ 122
int 122
japanese 122
kan@@ 122
losing 122
lunch 122
mid@@ 122
muscle 122
oned 122
ough 122
rational 122
section 122
spac@@ 122
spot 122
survi@@ 122
tles 122
ts@@ 122
ution 122
vehicle 122
zer@@ 122
100,000 121
abilities 121
acts 121
alists 121
appar@@ 121
appear 121
army 121
bear 121
camp 121
cans 121
circum@@ 121
colum@@ 121
currently 121
described 121
detail 121
di 121
emerging 121
ery 121
experts 121
feelings 121
free@@ 121
hell 121
hospit@@ 121
indic@@ 121
investig@@ 121
malaria 121
married 121
mentioned 121
neighborhood 121
proje@@ 121
promis@@ 121
rock@@ 121
roughly 121
scope 121
strategy 121
suppose 121
wake 121
worldwide 121
45 120
anima@@ 120
bit@@ 120
cer 120
chemicals 120
contr@@ 120
cure 120
dest@@ 120
develop@@ 120
dies 120
din@@ 120
dinosaurs 120
eleph@@ 120
graph@@ 120
highest 120
hin@@ 120
isi@@ 120
kenya 120
proce@@ 120
qua@@ 120
rus@@ 120
sen 120
sexual 120
signals 120
smell 120
stran@@ 120
thesis 120
valley 120
12@@ 119
20th 119
associated 119
bright 119
businesses 119
characteri@@ 119
coal 119
discipl@@ 119
double 119
entreprene@@ 119
fell 119
fix@@ 119
fore@@ 119
geni@@ 119
gold 119
grandmother 119
grown 119
lady 119
lec@@ 119
names 119
percei@@ 119
pes 119
rates 119
remote 119
seat 119
sever@@ 119
soldiers 119
vable 119
wit@@ 119
wri@@ 119
yle 119
ab 118
christ@@ 118
closed 118
contact 118
coral 118
ef@@ 118
fall@@ 118
hypo@@ 118
influ@@ 118
inte@@ 118
interface 118
jac@@ 118
jer@@ 118
layer 118
nei@@ 118
pet 118
thoughts 118
trip 118
accident 117
australia 117
chain 117
co 117
collect 117
disaster 117
embar@@ 117
ements 117
ero@@ 117
garden 117
ge-@@ 117
gran@@ 117
honest 117
importance 117
james 117
killing 117
lessons 117
library 117
motiv@@ 117
movies 117
practical 117
resource 117
shoul@@ 117
spoke 117
stands 117
tam@@ 117
violent 117
weather 117
35 116
avoid 116
brown 116
dan 116
dealing 116
drink 116
equipment 116
fat 116
george 116
ham 116
ir 116
leg 116
minister 116
northern 116
offi@@ 116
open-@@ 116
ple@@ 116
poor@@ 116
requi@@ 116
ritual 116
round 116
simul@@ 116
steel 116
studio 116
teeth 116
va 116
ack 115
affected 115
announ@@ 115
aring 115
ba 115
bin@@ 115
de-@@ 115
democratic 115
empty 115
england 115
essential 115
hadn 115
lim@@ 115
ly@@ 115
management 115
michael 115
oning 115
oral 115
player 115
pleasure 115
regular 115
sad 115
setting 115
skelet@@ 115
stro@@ 115
tch 115
trials 115
union 115
wine 115
zon 115
abstra@@ 114
account 114
adult 114
awful 114
broad@@ 114
budget 114
cards 114
celebra@@ 114
chr@@ 114
cially 114
clou@@ 114
conf@@ 114
controlled 114
daily 114
emergen@@ 114
gli@@ 114
mathematical 114
molecular 114
organs 114
play@@ 114
reaction 114
selling 114
stood 114
surprised 114
thers 114
trilli@@ 114
underneath 114
alternative 113
analysis 113
atom@@ 113
boo@@ 113
canada 113
categ@@ 113
details 113
elling 113
ene@@ 113
four@@ 113
grand 113
graphic 113
hero 113
homes 113
intellectual 113
intui@@ 113
launched 113
letters 113
meaning@@ 113
orig@@ 113
phil@@ 113
plic@@ 113
pre-@@ 113
property 113
radical 113
ras@@ 113
relevant 113
scene 113
sele@@ 113
sty 113
tin 113
yl@@ 113
ze@@ 113
advan@@ 112
ath 112
bus 112
chicken 112
clinical 112
condu@@ 112
department 112
dry 112
effectively 112
ere 112
gul@@ 112
hall 112
ili@@ 112
insu@@ 112
ison 112
master 112
miss 112
mod@@ 112
mountains 112
nant 112
newspaper 112
ols 112
orders 112
pil@@ 112
pleas@@ 112
possibilities 112
post-@@ 112
reci@@ 112
sight 112
spectrum 112
status 112
technical 112
van 112
visi@@ 112
wra@@ 112
99 111
addition 111
aming 111
amp 111
characters 111
curious 111
eline 111
existence 111
finish 111
ingu@@ 111
inti@@ 111
kers 111
kilometers 111
long-term 111
los 111
mista@@ 111
myster@@ 111
nervous 111
occasi@@ 111
portra@@ 111
preg@@ 111
prove 111
quali@@ 111
respe@@ 111
sharks 111
shir@@ 111
specifically 111
suggest@@ 111
suggests 111
transformation 111
users 111
warm 111
21@@ 110
3,000 110
affec@@ 110
ana 110
angle 110
beach 110
buying 110
civili@@ 110
diet 110
edu@@ 110
encoura@@ 110
enjo@@ 110
establi@@ 110
experienced 110
f-@@ 110
frank@@ 110
fundament@@ 110
gal@@ 110
gam@@ 110
gravity 110
guar@@ 110
metal 110
nigeria 110
ome 110
pole 110
prime 110
productive 110
saved 110
sides 110
spli@@ 110
sub-@@ 110
valuable 110
150 109
3d 109
absolute 109
anti-@@ 109
aries 109
ate@@ 109
atory 109
breaking 109
cil 109
considered 109
cultures 109
defined 109
definitely 109
efficiency 109
ember 109
facing 109
feedback 109
fewer 109
flat 109
gling 109
honor 109
horse 109
inning 109
nasa 109
od 109
osity 109
photographs 109
privi@@ 109
ption 109
researchers 109
satis@@ 109
shall 109
smar@@ 109
solved 109
spor@@ 109
stac@@ 109
sugar 109
testing 109
theme 109
ug@@ 109
wars 109
aded 108
adop@@ 108
advanced 108
ans@@ 108
calling 108
chri@@ 108
controll@@ 108
cross 108
dio@@ 108
express 108
faith 108
intern@@ 108
marine 108
mented 108
nor 108
ogra@@ 108
ologi@@ 108
perception 108
phan@@ 108
phi@@ 108
picked 108
platform 108
silk 108
sna@@ 108
spir@@ 108
stupid 108
tane@@ 108
target 108
techniques 108
tons 108
unds 108
whereas 108
wings 108
wire 108
aled 107
awareness 107
conduc@@ 107
convinced 107
coura@@ 107
deeper 107
distin@@ 107
fail 107
gely 107
hig@@ 107
identify 107
illness 107
industri@@ 107
kno@@ 107
liked 107
marriage 107
mix 107
players 107
rene@@ 107
roots 107
ships 107
thomas 107
tox@@ 107
transition 107
twitter 107
variety 107
via 107
-up 106
adverti@@ 106
architect 106
battery 106
bine 106
boundar@@ 106
breath 106
brothers 106
butt@@ 106
cents 106
chimpanze@@ 106
cker 106
connections 106
craft 106
diam@@ 106
factor 106
fossil 106
generally 106
harvard 106
inse@@ 106
invention 106
kitchen 106
life@@ 106
loc@@ 106
magnetic 106
method 106
notes 106
operate 106
radiation 106
rapi@@ 106
reli@@ 106
represents 106
tt 106
ush 106
admini@@ 105
arrived 105
astronom@@ 105
atlan@@ 105
axis 105
broke 105
buil@@ 105
by@@ 105
cape 105
click 105
clock 105
convince 105
demand 105
dogs 105
earth@@ 105
epidemic 105
evolutionary 105
exchange 105
explains 105
gles 105
goals 105
hit@@ 105
hot@@ 105
ination 105
ingre@@ 105
introduced 105
ium 105
kar@@ 105
partner 105
properties 105
rect 105
require 105
restaurant 105
scot@@ 105
stock 105
swim 105
typically 105
villa@@ 105
zone 105
- 104
600 104
behaviors 104
birth@@ 104
clas@@ 104
credit 104
ct@@ 104
dots 104
dow 104
ecosystem 104
employees 104
folks 104
former 104
fresh 104
iden@@ 104
increasing 104
islam@@ 104
lifetime 104
marketing 104
paraly@@ 104
pig@@ 104
planes 104
plays 104
protection 104
safety 104
serve 104
sett@@ 104
sources 104
stable 104
struggle 104
suggest 104
switch 104
teri@@ 104
videos 104
accept 103
artic@@ 103
aten 103
atri@@ 103
behavi@@ 103
darwin 103
germany 103
gift 103
liquid 103
magni@@ 103
maps 103
pacific 103
politicians 103
processes 103
rare 103
relatively 103
roads 103
sending 103
sky@@ 103
sophisticated 103
vulnerable 103
00,000 102
17@@ 102
2008 102
75 102
alist 102
bang 102
battle 102
bee@@ 102
bush 102
components 102
dent@@ 102
destruction 102
deter@@ 102
eff@@ 102
ema@@ 102
environments 102
fail@@ 102
fire@@ 102
fishing 102
gay 102
govern@@ 102
gressi@@ 102
ight 102
intri@@ 102
laptop 102
mention 102
motor 102
paradig@@ 102
prepared 102
ress 102
sages 102
tests 102
tradition 102
trick 102
tries 102
unlike 102
watched 102
winter 102
zi@@ 102
195@@ 101
ack@@ 101
afri@@ 101
ancestors 101
anding 101
associ@@ 101
bia 101
blocks 101
bru@@ 101
cab@@ 101
carefully 101
carrying 101
computing 101
coo@@ 101
cooking 101
curi@@ 101
director 101
ength 101
exercise 101
flas@@ 101
gap 101
gest@@ 101
hard@@ 101
licen@@ 101
noon 101
patent 101
personally 101
poetry 101
pollution 101
primary 101
pulled 101
risks 101
sensitive 101
ternal 101
the-@@ 101
ums 101
visible 101
volu@@ 101
wired 101
writer 101
af@@ 100
ai@@ 100
appropriate 100
ballo@@ 100
berg 100
brazil 100
burning 100
capture 100
cky 100
collaboration 100
driver 100
emissions 100
gover@@ 100
graphi@@ 100
isol@@ 100
ladies 100
musical 100
need@@ 100
onal 100
peak 100
pli@@ 100
requires 100
senses 100
sir 100
situations 100
solving 100
strated 100
string 100
style 100
than@@ 100
tradi@@ 100
u.k. 100
unit 100
vin@@ 100
who@@ 100
wid@@ 100
arri@@ 99
ball@@ 99
blan@@ 99
discussion 99
forests 99
frame 99
frame@@ 99
gest 99
goods 99
holds 99
iling 99
ished 99
location 99
manage 99
naturally 99
rand@@ 99
received 99
religi@@ 99
replace 99
roof 99
rup@@ 99
sentence 99
sets 99
soci@@ 99
strength 99
stry 99
tains 99
trage@@ 99
unusual 99
wash@@ 99
wikipedia 99
added 98
applied 98
aston@@ 98
cational 98
combination 98
confidence 98
crash 98
ctor 98
depends 98
drin@@ 98
dynam@@ 98
eastern 98
eco@@ 98
encourage 98
exam@@ 98
five-@@ 98
form@@ 98
francisco 98
gdp 98
instrument 98
introduce 98
jan@@ 98
laboratory 98
lay 98
milk 98
mira@@ 98
mirror 98
mistake 98
movements 98
nat@@ 98
paint@@ 98
percentage 98
pop 98
proteins 98
quanti@@ 98
quiet 98
regre@@ 98
reward 98
ride 98
runs 98
terror@@ 98
thin@@ 98
treat@@ 98
verage 98
wise 98
wondering 98
0 97
2000 97
atoms 97
burn 97
cau@@ 97
centers 97
closely 97
cutting 97
eller 97
empathy 97
explanation 97
ft@@ 97
fund 97
hits 97
interests 97
lock 97
maker 97
makers 97
mand@@ 97
medium 97
member 97
nin@@ 97
opinion 97
pants 97
penguins 97
piano 97
poten@@ 97
previous 97
raising 97
remem@@ 97
reti@@ 97
robert 97
sex@@ 97
sor 97
steve 97
stru@@ 97
susta@@ 97
sustain@@ 97
tables 97
twi@@ 97
ulti@@ 97
acci@@ 96
amounts 96
aw@@ 96
bubble 96
ckets 96
colli@@ 96
consumer 96
contin@@ 96
cry 96
display 96
factors 96
john@@ 96
key@@ 96
mas 96
mol@@ 96
of-@@ 96
pin@@ 96
redu@@ 96
rus 96
temporary 96
tracking 96
user 96
virg@@ 96
windows 96
ameras 95
ami 95
arily 95
autonom@@ 95
bet 95
cat 95
caus@@ 95
comple@@ 95
crowd 95
dered 95
ferti@@ 95
harv@@ 95
l-@@ 95
laugh@@ 95
quant@@ 95
relative 95
resear@@ 95
ridi@@ 95
southern 95
stress 95
tate 95
upp@@ 95
ange@@ 94
band 94
bel 94
bo 94
comfort 94
confli@@ 94
dam@@ 94
deci@@ 94
dur@@ 94
flexi@@ 94
fran@@ 94
hil@@ 94
hotel 94
house@@ 94
inspiration 94
lou@@ 94
mathemati@@ 94
nity 94
pack 94
post 94
stu@@ 94
ual 94
ue 94
2007 93
bag@@ 93
eland 93
element 93
increas@@ 93
inspi@@ 93
integr@@ 93
islam 93
mad 93
orche@@ 93
passi@@ 93
post@@ 93
swa@@ 93
tainment 93
tim 93
wher@@ 93
youtube 93
aro@@ 92
bag 92
bay 92
blog 92
ecu@@ 92
falls 92
fascin@@ 92
innovative 92
organ 92
plans 92
sav@@ 92
sees 92
staf@@ 92
tual 92
ware 92
2010 91
absor@@ 91
cast 91
crow@@ 91
fit@@ 91
hurt 91
institution 91
males 91
pay@@ 91
propor@@ 91
spr@@ 91
syste@@ 91
u.n. 91
za@@ 91
enga@@ 90
foc@@ 90
gation 90
gress 90
impli@@ 90
lifest@@ 90
manufacturing 90
nap@@ 90
open@@ 90
ord@@ 90
perman@@ 90
phili@@ 90
port@@ 90
recycl@@ 90
simil@@ 90
survey 90
taste 90
toler@@ 90
web@@ 90
arr@@ 89
assi@@ 89
boston 89
dir@@ 89
fabri@@ 89
gy@@ 89
inf@@ 89
instruments 89
pollen 89
rat@@ 89
resili@@ 89
rop@@ 89
sper@@ 89
tie 89
unger 89
water@@ 89
ada@@ 88
arab@@ 88
atten@@ 88
defe@@ 88
discus@@ 88
gla@@ 88
metho@@ 88
obje@@ 88
origin@@ 88
phenomen@@ 88
phr@@ 88
queen 88
rab@@ 88
requ@@ 88
stant 88
stun@@ 88
teams 88
tribu@@ 88
ye 88
15@@ 87
astero@@ 87
aug@@ 87
black@@ 87
designs 87
fing@@ 87
proto@@ 87
sa 87
sal 87
scop@@ 87
stan@@ 87
stand@@ 87
strug@@ 87
thin 87
tili@@ 87
tw@@ 87
yo 87
2.@@ 86
21 86
alt 86
clip 86
competi@@ 86
elec@@ 86
fau@@ 86
goo@@ 86
imple@@ 86
king@@ 86
philosoph@@ 86
polio 86
scrat@@ 86
success@@ 86
tee 86
tube 86
was@@ 86
wes@@ 86
che 85
copy@@ 85
dor@@ 85
elimin@@ 85
films 85
ford 85
gration 85
haiti 85
inje@@ 85
less@@ 85
nose 85
pakistan 85
september 85
aller@@ 84
bene@@ 84
bin 84
compon@@ 84
diagra@@ 84
genom@@ 84
great@@ 84
oles@@ 84
opp@@ 84
ti 84
trin@@ 84
vehi@@ 84
archi@@ 83
bert 83
brow@@ 83
budd@@ 83
chicago 83
common@@ 83
mean@@ 83
navi@@ 83
oud 83
paris 83
sahar@@ 83
som@@ 83
spin@@ 83
stian 83
thou@@ 83
trend 83
une 83
2005 82
appl@@ 82
band@@ 82
bucks 82
certain@@ 82
co-@@ 82
cool@@ 82
curr@@ 82
ela 82
entrepr@@ 82
ern 82
essen@@ 82
exponenti@@ 82
feder@@ 82
gment 82
hell@@ 82
interpre@@ 82
mom@@ 82
pen 82
pure 82
rhyth@@ 82
roo@@ 82
sand@@ 82
sequ@@ 82
spar@@ 82
stent 82
tem@@ 82
uss 82
venue 82
ya 82
16@@ 81
ay 81
bacteri@@ 81
blog@@ 81
er-@@ 81
esses 81
ing-@@ 81
ker@@ 81
kill@@ 81
multi-@@ 81
obama 81
partner@@ 81
repu@@ 81
scan 81
symptom@@ 81
.com 80
ai 80
ania 80
automo@@ 80
bat 80
dun@@ 80
epi@@ 80
fan 80
gender 80
gps 80
hen@@ 80
hood 80
interest@@ 80
iting 80
partic@@ 80
sign@@ 80
year-@@ 80
you@@ 80
ank@@ 79
fic@@ 79
gates 79
glas@@ 79
inn@@ 79
input 79
instin@@ 79
ku@@ 79
lung 79
organis@@ 79
prepar@@ 79
sci@@ 79
simpl@@ 79
stati@@ 79
sue 79
tz@@ 79
uns 79
autis@@ 78
chil@@ 78
cyber@@ 78
fab@@ 78
interview 78
kins 78
origami 78
p-@@ 78
phase 78
popu@@ 78
spra@@ 78
standards 78
wand@@ 78
ager 77
citi@@ 77
clever 77
commun@@ 77
ee@@ 77
ern@@ 77
kni@@ 77
one@@ 77
peter 77
que@@ 77
relation 77
ser 77
stimul@@ 77
surpris@@ 77
uns@@ 77
wis@@ 77
2009 76
50@@ 76
add@@ 76
bun@@ 76
c. 76
crea@@ 76
ever@@ 76
illegal 76
indepen@@ 76
iop@@ 76
korea 76
nets 76
ord 76
psychi@@ 76
scho@@ 76
soft 76
stit@@ 76
theor@@ 76
uganda 76
14@@ 75
65 75
adi@@ 75
an-@@ 75
bell 75
chip 75
dh 75
hunger 75
iphone 75
les@@ 75
pharma@@ 75
photo@@ 75
pyrami@@ 75
rich@@ 75
sely 75
ually 75
adam 74
deta@@ 74
eping 74
frank 74
gent 74
genu@@ 74
grab 74
ideal 74
indu@@ 74
journalist 74
market@@ 74
mon 74
nel@@ 74
orbit 74
partment 74
proper@@ 74
real@@ 74
refer@@ 74
retro@@ 74
strategi@@ 74
tag 74
tes@@ 74
umin@@ 74
vered 74
woo@@ 74
zz 74
agri@@ 73
angel@@ 73
any@@ 73
brief 73
dru@@ 73
fusion 73
jack 73
ket 73
ki 73
manufac@@ 73
mili@@ 73
olymp@@ 73
ota 73
poly@@ 73
prop@@ 73
regu@@ 73
sensi@@ 73
tag@@ 73
tour 73
tus 73
vulner@@ 73
wol@@ 73
00 72
attle 72
bi 72
bol@@ 72
club 72
cock@@ 72
diabetes 72
disc@@ 72
gall@@ 72
got@@ 72
links 72
moder@@ 72
net@@ 72
olo@@ 72
orange 72
profession@@ 72
sent@@ 72
tely 72
texas 72
what@@ 72
ald 71
ar-@@ 71
ax@@ 71
bud@@ 71
chromo@@ 71
forma@@ 71
innova@@ 71
lot@@ 71
neuron 71
op 71
parallel 71
sage 71
silicon 71
thr@@ 71
tricks 71
yn 71
zations 71
19 70
anda 70
ben 70
bf 70
duced 70
ene 70
expan@@ 70
farmer 70
gent@@ 70
illusion 70
isra@@ 70
k-@@ 70
manipu@@ 70
meetings 70
migr@@ 70
pool 70
rs 70
stly 70
turing 70
usual 70
vas@@ 70
vy 70
agenda 69
aper 69
commer@@ 69
defin@@ 69
diff@@ 69
elegan@@ 69
film@@ 69
ghana 69
idi@@ 69
mess@@ 69
ogen@@ 69
ograph@@ 69
ome@@ 69
pad 69
reson@@ 69
tis 69
transpar@@ 69
2004 68
22 68
27 68
95 68
arly 68
diplo@@ 68
eric 68
fam@@ 68
favor@@ 68
follo@@ 68
gang 68
heal@@ 68
humor 68
ji@@ 68
lege 68
motivation 68
n-@@ 68
nee 68
sion@@ 68
stanford 68
talent 68
transforma@@ 68
univer@@ 68
usi@@ 68
verse 68
willi@@ 68
bow@@ 67
chaos 67
fel@@ 67
fic 67
gery 67
juli@@ 67
long-@@ 67
nest 67
pa 67
pus 67
sandwi@@ 67
sty@@ 67
super 67
viet@@ 67
vo 67
zer 67
2003 66
26 66
angeles 66
cise 66
dama@@ 66
dialo@@ 66
distri@@ 66
elt 66
experim@@ 66
frag@@ 66
glam@@ 66
hang 66
janu@@ 66
manhattan 66
nation@@ 66
pilot 66
rely 66
stors 66
symbol 66
transi@@ 66
vagina 66
vels 66
viol@@ 66
anony@@ 65
astro@@ 65
brie@@ 65
class@@ 65
deep@@ 65
derek 65
experiment@@ 65
foun@@ 65
geno@@ 65
geographic 65
grab@@ 65
gst 65
hau@@ 65
nes@@ 65
oxford 65
republi@@ 65
rier 65
stam@@ 65
transport 65
trou@@ 65
ultra@@ 65
wild@@ 65
2006 64
alzheimer 64
athei@@ 64
dam 64
dau@@ 64
fortunately 64
ghter 64
microsoft 64
sation 64
skep@@ 64
sw 64
syl@@ 64
tain@@ 64
text@@ 64
194@@ 63
32 63
alien 63
baseball 63
bis@@ 63
cher@@ 63
consci@@ 63
danger@@ 63
dia 63
diffic@@ 63
dig 63
golf 63
han 63
intro@@ 63
jon@@ 63
legi@@ 63
mary 63
nia 63
oms 63
pan 63
parado@@ 63
pati@@ 63
poster 63
psycho@@ 63
revol@@ 63
sugge@@ 63
tiv@@ 63
trends 63
tude 63
var@@ 63
weal@@ 63
angi@@ 62
anthropo@@ 62
ay@@ 62
dimension 62
enced 62
ette 62
expedi@@ 62
gan 62
harmon@@ 62
iel 62
institu@@ 62
instru@@ 62
martin 62
mo 62
nai@@ 62
stimu@@ 62
tax@@ 62
tz 62
zens 62
2001 61
3.@@ 61
alex@@ 61
bub@@ 61
collea@@ 61
democra@@ 61
dinosau@@ 61
element@@ 61
expen@@ 61
hall@@ 61
moment@@ 61
phosp@@ 61
saturn 61
sel 61
sin 61
ski@@ 61
teen@@ 61
teena@@ 61
tenden@@ 61
wa 61
23 60
bby 60
confi@@ 60
differ@@ 60
engagement 60
enth@@ 60
fe 60
filter 60
fres@@ 60
howard 60
ib@@ 60
ices 60
mail 60
may@@ 60
patri@@ 60
pper 60
spee@@ 60
trau@@ 60
ville 60
whit@@ 60
250 59
ater 59
bronx 59
cin 59
coll@@ 59
florida 59
gand@@ 59
hollywood 59
immedi@@ 59
initiative 59
instal@@ 59
kor@@ 59
listen@@ 59
mir@@ 59
optimis@@ 59
plat@@ 59
priv@@ 59
rio 59
schizophren@@ 59
sequen@@ 59
sey 59
steven 59
transparent 59
vil 59
analog@@ 58
ance@@ 58
are@@ 58
astrop@@ 58
bizar@@ 58
dation 58
dopam@@ 58
hori@@ 58
jes@@ 58
kel@@ 58
lear@@ 58
mous 58
neighbor@@ 58
og@@ 58
pho@@ 58
pon 58
sport 58
tour@@ 58
tsun@@ 58
universi@@ 58
with@@ 58
ah@@ 57
cambridge 57
cel@@ 57
chol@@ 57
decisi@@ 57
fair@@ 57
gir@@ 57
gut 57
h-@@ 57
itali@@ 57
kit@@ 57
lee 57
lux@@ 57
matri@@ 57
mm 57
mption 57
mysteri@@ 57
pir@@ 57
pollu@@ 57
primi@@ 57
questi@@ 57
sop@@ 57
theore@@ 57
tober 57
transp@@ 57
tumor@@ 57
za 57
ade@@ 56
alle@@ 56
andre@@ 56
antibio@@ 56
brian 56
condi@@ 56
d.@@ 56
dile@@ 56
explosion 56
hallu@@ 56
hn@@ 56
ind 56
initi@@ 56
ires 56
kon@@ 56
quot@@ 56
span@@ 56
syndro@@ 56
tony 56
zu@@ 56
193@@ 55
1960 55
800 55
ala 55
anderth@@ 55
ardo 55
au 55
blogs 55
boun@@ 55
doc@@ 55
eness 55
expe@@ 55
geogra@@ 55
gore 55
gur@@ 55
henry 55
hus@@ 55
inging 55
kat@@ 55
medic@@ 55
mem@@ 55
mote 55
restaurants 55
sons 55
ste 55
teach@@ 55
temper@@ 55
terrori@@ 55
therap@@ 55
will@@ 55
700 54
abra@@ 54
ander 54
batter@@ 54
biolog@@ 54
febru@@ 54
fes@@ 54
fi 54
glamour 54
homo 54
intuition 54
jim 54
jo 54
kb 54
miner@@ 54
minim@@ 54
pump@@ 54
rying 54
symbo@@ 54
ttle 54
versi@@ 54
wind@@ 54
é@@ 54
28 53
bb@@ 53
bei@@ 53
bli@@ 53
broo@@ 53
experi@@ 53
geor@@ 53
ghtly 53
hai 53
hat 53
inde@@ 53
invasi@@ 53
joe 53
kr@@ 53
los@@ 53
mammo@@ 53
mana@@ 53
mechanis@@ 53
mode 53
ren 53
rul@@ 53
simulation 53
smith 53
vent 53
verb@@ 53
zza 53
24@@ 52
29 52
anthrop@@ 52
aster 52
bai 52
bak@@ 52
bob 52
dings 52
emp@@ 52
entrop@@ 52
garage 52
geome@@ 52
gle 52
ht@@ 52
iness 52
introdu@@ 52
kev@@ 52
ko 52
midd@@ 52
pid 52
planet@@ 52
profi@@ 52
q 52
run@@ 52
typ@@ 52
2,@@ 51
ames 51
ander@@ 51
ario 51
bedro@@ 51
cei@@ 51
dul@@ 51
fing 51
hl@@ 51
ipo@@ 51
leon@@ 51
metaph@@ 51
mou@@ 51
nigeri@@ 51
oxyto@@ 51
rat 51
85 50
alter@@ 50
amer@@ 50
att@@ 50
banglades@@ 50
caf@@ 50
ce-@@ 50
echn@@ 50
engine@@ 50
ests 50
extre@@ 50
g-@@ 50
iety 50
interpretation 50
lie@@ 50
lincol@@ 50
pm 50
quad@@ 50
rb 50
stal@@ 50
tale 50
thei@@ 50
umines@@ 50
ut 50
venti@@ 50
120 49
alli@@ 49
asse@@ 49
benjam@@ 49
clear@@ 49
dow@@ 49
environ@@ 49
evi@@ 49
feyn@@ 49
hierarch@@ 49
immer@@ 49
individu@@ 49
magne@@ 49
raft 49
signific@@ 49
streng@@ 49
taliban 49
tu 49
bec@@ 48
gens 48
gras 48
mt 48
phot@@ 48
revolution@@ 48
ril 48
tel 48
wander@@ 48
ale@@ 47
ap 47
ban 47
barri@@ 47
billi@@ 47
dens 47
dung 47
eting 47
fallen 47
festi@@ 47
ga 47
gab@@ 47
hol 47
impul@@ 47
mark@@ 47
mov@@ 47
ore@@ 47
sei@@ 47
signi@@ 47
sour@@ 47
tanz@@ 47
tra 47
biot@@ 46
chem@@ 46
concern@@ 46
dient 46
earli@@ 46
finger@@ 46
jam@@ 46
labor@@ 46
laptops 46
mor 46
nee@@ 46
nis@@ 46
pag@@ 46
pause 46
pengu@@ 46
peop@@ 46
read@@ 46
sche@@ 46
soldi@@ 46
tage 46
asy 45
figu@@ 45
iso@@ 45
landscap@@ 45
lei@@ 45
lief 45
motor@@ 45
opti@@ 45
prac@@ 45
rot 45
spu@@ 45
ss@@ 45
strat@@ 45
tier 45
ung 45
w-@@ 45
abo@@ 44
alo@@ 44
avo@@ 44
carb@@ 44
cient 44
dose 44
gravi@@ 44
ig 44
kore@@ 44
m-@@ 44
offen@@ 44
ond 44
phen 44
photogra@@ 44
previ@@ 44
program@@ 44
ration@@ 44
ritu@@ 44
stock@@ 44
tioned 44
yor@@ 44
abor@@ 43
ama 43
anal@@ 43
austr@@ 43
cess@@ 43
cum@@ 43
du 43
ech@@ 43
espe@@ 43
inven@@ 43
justi@@ 43
knowle@@ 43
libr@@ 43
mam@@ 43
mathema@@ 43
meta@@ 43
moun@@ 43
rei@@ 43
sten@@ 43
utes 43
valu@@ 43
alterna@@ 42
cess 42
cogni@@ 42
finan@@ 42
ision 42
jen@@ 42
llan@@ 42
lun@@ 42
manu@@ 42
num@@ 42
oll@@ 42
ort 42
popul@@ 42
quie@@ 42
remark@@ 42
satur@@ 42
sim@@ 42
simu@@ 42
sud@@ 42
tel@@ 42
there@@ 42
transplan@@ 42
unter@@ 42
use@@ 42
afgh@@ 41
beauti@@ 41
campaig@@ 41
chel 41
dium 41
eing 41
gif@@ 41
mach 41
machin@@ 41
seem@@ 41
substan@@ 41
tent@@ 41
zin@@ 41
anten@@ 40
authenti@@ 40
bile 40
en-@@ 40
fashi@@ 40
fossi@@ 40
gel 40
horizon@@ 40
ich 40
lap@@ 40
met@@ 40
opini@@ 40
pedia 40
phic 40
rais@@ 40
spea@@ 40
ularly 40
vey 40
wart 40
zon@@ 40
anno@@ 39
bank@@ 39
bir@@ 39
chur@@ 39
cris@@ 39
fest@@ 39
gie 39
gil@@ 39
ital 39
know@@ 39
lli@@ 39
oce@@ 39
prise 39
probe 39
proble@@ 39
sexu@@ 39
stes 39
stol@@ 39
world@@ 39
é 39
arm@@ 38
ener@@ 38
enor@@ 38
enzy@@ 38
equi@@ 38
gel@@ 38
infra@@ 38
nes 38
pathy 38
phab@@ 38
repli@@ 38
rest@@ 38
sam 38
selves 38
stopp@@ 38
sup@@ 38
com 37
dar 37
defini@@ 37
emotion@@ 37
gues 37
lan 37
materi@@ 37
mati@@ 37
nik 37
nom@@ 37
nt 37
profess@@ 37
sequences 37
ston 37
strate@@ 37
teenager 37
tty 37
+ 36
aa@@ 36
ann 36
dden 36
enha@@ 36
epide@@ 36
ficial 36
has@@ 36
ja 36
kal@@ 36
ket@@ 36
norden 36
para@@ 36
politi@@ 36
stir@@ 36
ve-@@ 36
vul@@ 36
agi@@ 35
aly@@ 35
anth@@ 35
ause 35
deb@@ 35
effici@@ 35
ens@@ 35
eth 35
implan@@ 35
inger 35
ins@@ 35
lied 35
mber 35
nas@@ 35
nie 35
nis 35
py@@ 35
rt 35
stabili@@ 35
stig@@ 35
stin 35
ter-@@ 35
vid 35
vir@@ 35
actu@@ 34
alia 34
beh@@ 34
brilli@@ 34
itely 34
kol@@ 34
laden 34
perfe@@ 34
princi@@ 34
responsi@@ 34
ross 34
soc@@ 34
stic@@ 34
tts 34
unity 34
yn@@ 34
zy 34
adul@@ 33
aus@@ 33
beha@@ 33
belo@@ 33
dol@@ 33
explan@@ 33
fest 33
gold@@ 33
homo@@ 33
ire 33
kn@@ 33
melt 33
mobili@@ 33
phy@@ 33
sands 33
scap@@ 33
scienti@@ 33
stan 33
tech@@ 33
usa 33
von 33
well@@ 33
west@@ 33
ang 32
appropri@@ 32
chron@@ 32
convin@@ 32
exer@@ 32
issu@@ 32
kilometer 32
ony@@ 32
quick@@ 32
rie@@ 32
seri@@ 32
tiger 32
beginn@@ 31
brazi@@ 31
chemi@@ 31
eil 31
fically 31
hir@@ 31
ington 31
ler@@ 31
mann 31
stein 31
strand 31
beg@@ 30
gala@@ 30
halt 30
hen 30
kei@@ 30
mexi@@ 30
ollywood 30
ousness 30
resul@@ 30
suc@@ 30
tages 30
astron@@ 29
bilities 29
ctly 29
dows 29
el-@@ 29
figh@@ 29
grow@@ 29
hiv-@@ 29
hundre@@ 29
mach@@ 29
mau@@ 29
ose 29
pau@@ 29
perspe@@ 29
tali@@ 29
tedx@@ 29
through@@ 29
unter 29
vat@@ 29
volun@@ 29
wen@@ 29
yel@@ 29
zen@@ 29
anthro@@ 28
atmosp@@ 28
bang@@ 28
bet@@ 28
ch-@@ 28
die@@ 28
garten 28
mers 28
nett 28
notic@@ 28
passion@@ 28
sie 28
sie@@ 28
sms 28
ada 27
bron@@ 27
computer@@ 27
electri@@ 27
energi@@ 27
exist@@ 27
jung@@ 27
lage 27
las 27
maga@@ 27
marke@@ 27
muse@@ 27
natur@@ 27
tish 27
traff@@ 27
tren@@ 27
vili@@ 27
xic@@ 27
á@@ 27
100@@ 26
capac@@ 26
child@@ 26
dee@@ 26
doll@@ 26
easi@@ 26
eit 26
inge 26
integri@@ 26
mmer 26
paki@@ 26
psy@@ 26
relev@@ 26
shou@@ 26
stell@@ 26
sten 26
tops 26
tte 26
v-@@ 26
watt 26
bot 25
busin@@ 25
chs 25
deca@@ 25
dp 25
eig@@ 25
ein@@ 25
freu@@ 25
frie@@ 25
gar 25
gat@@ 25
gigan@@ 25
hm@@ 25
hn 25
infor@@ 25
kinder@@ 25
kra@@ 25
mama 25
nega@@ 25
recy@@ 25
standar@@ 25
tot@@ 25
tradition@@ 25
wom@@ 25
americ@@ 24
aner 24
block@@ 24
cker@@ 24
dab@@ 24
dn@@ 24
euro@@ 24
gement 24
hung 24
intelli@@ 24
massi@@ 24
ques 24
sach@@ 24
sear@@ 24
stim@@ 24
sug@@ 24
urban@@ 24
accor@@ 23
das 23
del 23
effec@@ 23
enz@@ 23
ira@@ 23
jour@@ 23
nah 23
oly@@ 23
performan@@ 23
pers@@ 23
rief 23
tig@@ 23
us-@@ 23
zine 23
big@@ 22
boot 22
digit@@ 22
elle 22
elli@@ 22
fort 22
git@@ 22
hou@@ 22
imi@@ 22
inner@@ 22
intellec@@ 22
iti 22
perfor@@ 22
presi@@ 22
s. 22
soft@@ 22
ssi@@ 22
sth@@ 22
symp@@ 22
technolog@@ 22
toll 22
tremend@@ 22
valent 22
vil@@ 22
aller 21
anim@@ 21
aus 21
avail@@ 21
bare 21
bibli@@ 21
chers 21
chin@@ 21
emis@@ 21
employe@@ 21
evolution@@ 21
fas@@ 21
marri@@ 21
rin@@ 21
sat@@ 21
schwar@@ 21
tality 21
vag@@ 21
vide@@ 21
zar@@ 21
allen 20
alls 20
alter 20
awar@@ 20
benef@@ 20
bili@@ 20
call@@ 20
eins 20
grou@@ 20
kam@@ 20
kur@@ 20
len 20
let@@ 20
milit@@ 20
ough@@ 20
patter@@ 20
pian@@ 20
poe@@ 20
resour@@ 20
socie@@ 20
tempor@@ 20
anders 19
dop@@ 19
ein 19
europa 19
ffer 19
hri@@ 19
imp@@ 19
je 19
kir@@ 19
kle 19
ppe 19
rant 19
rd 19
spiritu@@ 19
tea@@ 19
tie@@ 19
vail@@ 19
aler 18
atur@@ 18
atz 18
energ@@ 18
europe@@ 18
famili@@ 18
foreig@@ 18
internation@@ 18
kab@@ 18
lang@@ 18
lem 18
maj@@ 18
nie@@ 18
other@@ 18
oxy@@ 18
phen@@ 18
pie@@ 18
professi@@ 18
rand 18
ruption 18
stop@@ 18
tten 18
wiki@@ 18
complic@@ 17
das@@ 17
eur@@ 17
extrem@@ 17
geria 17
handy 17
ik 17
kay 17
ks@@ 17
mee 17
meer 17
miss@@ 17
mond 17
osau@@ 17
ox@@ 17
parti@@ 17
pel 17
solu@@ 17
tern@@ 17
witz 17
) 16
2-@@ 16
bau@@ 16
bitten 16
bren@@ 16
comfort@@ 16
deu@@ 16
efully 16
ffe 16
fort@@ 16
intelle@@ 16
kamen 16
kt 16
won@@ 16
zur@@ 16
= 15
affe@@ 15
cke 15
eri@@ 15
event@@ 15
fahr@@ 15
feed@@ 15
gend 15
geri@@ 15
glas 15
hr 15
ille 15
informa@@ 15
lang 15
lich@@ 15
mali@@ 15
mik@@ 15
prot@@ 15
sophistic@@ 15
train@@ 15
vern@@ 15
where@@ 15
@ 14
arma@@ 14
atem@@ 14
auto 14
cule 14
diab@@ 14
ek@@ 14
ellen 14
enheit 14
esse 14
fren@@ 14
grad 14
hab 14
k. 14
kap@@ 14
klein 14
kri@@ 14
kurz@@ 14
lagen 14
leu@@ 14
nte 14
posite 14
sein 14
simp@@ 14
situ@@ 14
statisti@@ 14
weil 14
wu@@ 14
zy@@ 14
% 13
amo@@ 13
chen 13
chro@@ 13
cken@@ 13
dies@@ 13
engli@@ 13
exac@@ 13
fei@@ 13
fern@@ 13
goog@@ 13
heim 13
intensi@@ 13
invisi@@ 13
kli@@ 13
klu@@ 13
mus 13
pagne 13
reme@@ 13
rhy@@ 13
ring@@ 13
schil@@ 13
stero@@ 13
tivi@@ 13
weapon@@ 13
weib@@ 13
wick@@ 13
– 13
… 13
# 12
000 12
alt@@ 12
aut 12
autos 12
bald 12
curity 12
derer 12
dit 12
gei@@ 12
him@@ 12
km 12
meister 12
omen 12
organ@@ 12
ould 12
pover@@ 12
safe@@ 12
sch 12
schwi@@ 12
stom@@ 12
unbe@@ 12
í@@ 12
.b. 11
alg@@ 11
astern 11
beri@@ 11
betra@@ 11
bis 11
cken 11
desig@@ 11
dimension@@ 11
dn 11
egal 11
ffe@@ 11
isla@@ 11
kla@@ 11
leb@@ 11
mexic@@ 11
mole@@ 11
ok@@ 11
rough@@ 11
strom 11
studi@@ 11
ó@@ 11
aden 10
britan@@ 10
compan@@ 10
dem 10
eine 10
fiel@@ 10
herr@@ 10
hl 10
hmen 10
intu@@ 10
kind@@ 10
liche 10
olog@@ 10
pro 10
spen@@ 10
spit@@ 10
stab@@ 10
stark 10
ted-@@ 10
telev@@ 10
tier@@ 10
tol@@ 10
toll@@ 10
wollen 10
wur@@ 10
abili@@ 9
auge 9
diag@@ 9
dise@@ 9
ender 9
erer 9
fanta@@ 9
feld 9
fen@@ 9
geist 9
gs@@ 9
ih@@ 9
ith 9
kro@@ 9
mei@@ 9
meth@@ 9
mir 9
mith@@ 9
nerv@@ 9
normal@@ 9
paci@@ 9
pol 9
rad@@ 9
scha@@ 9
stein@@ 9
stern 9
stige 9
stung 9
terr@@ 9
two@@ 9
u-@@ 9
vier 9
zeit@@ 9
zu 9
è@@ 9
brot 8
cept 8
chen@@ 8
chir@@ 8
feu@@ 8
gend@@ 8
ges@@ 8
gni@@ 8
hier@@ 8
hoff@@ 8
instit@@ 8
kas 8
kel 8
kinder 8
kle@@ 8
klei@@ 8
kus@@ 8
lag 8
muster 8
norm@@ 8
pf@@ 8
privat@@ 8
rem 8
schul@@ 8
sophi@@ 8
stud@@ 8
tex 8
til 8
unts 8
( 7
best@@ 7
buch@@ 7
cht 7
chter 7
famil@@ 7
frei@@ 7
funk@@ 7
geb@@ 7
gren@@ 7
kun@@ 7
lle 7
masse 7
mutter@@ 7
natu@@ 7
oren 7
ote 7
percent@@ 7
pment 7
sche 7
slow@@ 7
stens 7
stur@@ 7
sung 7
tei@@ 7
uten 7
verti@@ 7
your@@ 7
^ 6
_ 6
aber 6
beau@@ 6
bie@@ 6
brau@@ 6
cals 6
den-@@ 6
dir 6
eis@@ 6
ende 6
eren 6
face@@ 6
fen 6
gele@@ 6
gem 6
haus@@ 6
inn 6
kapu@@ 6
lager 6
langu@@ 6
ld 6
mel 6
nach@@ 6
raid 6
rau@@ 6
reich 6
schen 6
spiel@@ 6
stif@@ 6
them@@ 6
tice 6
tod 6
tung 6
vices 6
wen 6
wie@@ 6
zir@@ 6
att 5
atten 5
cht@@ 5
cisco 5
degre@@ 5
ehrlich 5
emo@@ 5
feel@@ 5
ffen 5
industr@@ 5
ings@@ 5
job@@ 5
kleiner 5
kul@@ 5
lik@@ 5
malari@@ 5
mme 5
prei@@ 5
protot@@ 5
quas@@ 5
rad 5
ries@@ 5
rö@@ 5
samer 5
schnei@@ 5
sich@@ 5
silic@@ 5
sinn@@ 5
solar@@ 5
stab 5
stad@@ 5
stead 5
steu@@ 5
tau@@ 5
techn@@ 5
tete 5
thom@@ 5
trie@@ 5
ully 5
zent@@ 5
zig 5
ã@@ 5
í 5
acht 4
angst 4
auff@@ 4
baum@@ 4
blas@@ 4
califor@@ 4
chines@@ 4
dass 4
disci@@ 4
doch 4
econ@@ 4
erin 4
ernst 4
etes 4
etz 4
flei@@ 4
fore 4
ften 4
hast 4
haus 4
insel 4
kern@@ 4
klas@@ 4
koll@@ 4
kom@@ 4
kop@@ 4
kraft 4
kre@@ 4
kt@@ 4
kung 4
kunst@@ 4
mobil@@ 4
mund 4
neur@@ 4
nun 4
orten 4
strateg@@ 4
tem 4
tern 4
tet 4
video@@ 4
viron@@ 4
wagen 4
wand 4
ween 4
wein@@ 4
zit@@ 4
ç@@ 4
ê@@ 4
อ@@ 4
* 3
auf 3
b. 3
bein 3
berg@@ 3
besser 3
brei@@ 3
brenn@@ 3
bs@@ 3
complex@@ 3
det 3
det@@ 3
dok@@ 3
drin 3
eben 3
eler@@ 3
ente 3
enz 3
erde 3
every@@ 3
expon@@ 3
felder 3
fert 3
fisch@@ 3
gabe 3
gebra@@ 3
genug 3
glau@@ 3
goti@@ 3
halten@@ 3
happen@@ 3
hart 3
heu@@ 3
intelligen@@ 3
internet@@ 3
isch 3
klo@@ 3
kog@@ 3
ktor 3
kum 3
lange 3
lich 3
lige 3
liqu@@ 3
mend@@ 3
mie 3
mitten 3
n. 3
nah@@ 3
nein 3
nen 3
nst 3
omen@@ 3
onie 3
pf 3
pite 3
plasti@@ 3
rami@@ 3
repar@@ 3
scher 3
schi@@ 3
schizop@@ 3
schle@@ 3
schwa@@ 3
schwei@@ 3
seine 3
sep@@ 3
ske@@ 3
spiegel 3
stil 3
tat 3
teu@@ 3
toge@@ 3
toile@@ 3
tun 3
uner@@ 3
wald 3
yester@@ 3
zep@@ 3
zog 3
zop@@ 3
 3
 3
â 3
ñ@@ 3
ö@@ 3
ü@@ 3
abend 2
absol@@ 2
absolu@@ 2
aga@@ 2
alen 2
alles 2
asse 2
atur 2
aum 2
bein@@ 2
bele@@ 2
blatt 2
casi@@ 2
chti@@ 2
dership 2
dorf 2
eben@@ 2
eigen@@ 2
einem 2
ement@@ 2
entre@@ 2
essen 2
fft 2
freude 2
fs@@ 2
für 2
ganz 2
gegen@@ 2
geld@@ 2
herr 2
hier 2
hin 2
hinder@@ 2
hinter@@ 2
hle 2
holt 2
ien 2
ige 2
iger 2
iges 2
immer 2
incredi@@ 2
kapital 2
kran@@ 2
kus 2
langer 2
laut 2
leiter 2
lern@@ 2
licht@@ 2
meet@@ 2
mensch 2
merk@@ 2
mie@@ 2
mier@@ 2
mitt@@ 2
nen@@ 2
ob 2
ober@@ 2
opport@@ 2
ost@@ 2
possi@@ 2
programme 2
prü@@ 2
pä@@ 2
roh@@ 2
rote 2
schn@@ 2
schu@@ 2
smit@@ 2
spie@@ 2
spiel 2
spru@@ 2
sse 2
ssen 2
stag 2
sz@@ 2
tsch@@ 2
ult 2
uss@@ 2
verk@@ 2
vog@@ 2
waff@@ 2
wird 2
wus@@ 2
zei@@ 2
zin 2
zt 2
zwei@@ 2
£ 2
² 2
à 2
ä@@ 2
ø@@ 2
ā@@ 2
ร 2
่ 2
.. 1
.000 1
\ 1
abli@@ 1
aku@@ 1
allgemeinen 1
anz 1
auf@@ 1
autor@@ 1
base@@ 1
baum 1
bei 1
bern 1
blau 1
bras@@ 1
brasili@@ 1
cen 1
charac@@ 1
chic@@ 1
childr@@ 1
chten@@ 1
dank 1
debat@@ 1
denly 1
desto 1
destru@@ 1
deut@@ 1
devel@@ 1
diesel@@ 1
dopp@@ 1
druck 1
durch 1
echt 1
effi@@ 1
ei 1
eigent@@ 1
elles 1
eln 1
engl@@ 1
ertes 1
feuer@@ 1
ffee 1
fisch 1
flori@@ 1
frau 1
frei 1
fte 1
gab 1
gedanken 1
geist@@ 1
gem@@ 1
gere@@ 1
geru@@ 1
gerä@@ 1
geschü@@ 1
gross@@ 1
gung 1
guten 1
gö@@ 1
habe 1
haft 1
haut 1
heim@@ 1
herz 1
hie@@ 1
hlen@@ 1
holz@@ 1
hren@@ 1
idee 1
ier@@ 1
ingen 1
internationale 1
ische 1
japan@@ 1
kam 1
kampf 1
kauf@@ 1
keiten 1
kenn@@ 1
kern 1
kilome@@ 1
kolle@@ 1
konz@@ 1
ktu@@ 1
kunst 1
kü@@ 1
lauf@@ 1
lebe@@ 1
legen 1
lichen 1
liches 1
lig 1
lok@@ 1
lö@@ 1
mals 1
manhat@@ 1
marki@@ 1
mathe@@ 1
maus 1
mehr@@ 1
mein 1
mein@@ 1
meine 1
mensch@@ 1
micha@@ 1
minister@@ 1
molecul@@ 1
moral@@ 1
morgen 1
movi@@ 1
mut 1
mä@@ 1
möglich 1
national@@ 1
neue 1
nung 1
obvi@@ 1
olly@@ 1
onen 1
online-@@ 1
othe@@ 1
politik 1
ppen 1
rants 1
rech@@ 1
recht@@ 1
rede 1
regel@@ 1
regen 1
regen@@ 1
reich@@ 1
relation@@ 1
rett@@ 1
risi@@ 1
robot@@ 1
schaf@@ 1
schau@@ 1
schen@@ 1
schl@@ 1
schlei@@ 1
schluss 1
schmu@@ 1
schnell 1
schwe@@ 1
sei 1
sohn 1
spezi@@ 1
sst 1
sweise 1
sä@@ 1
thema 1
tot 1
toten 1
trie 1
trum 1
tsam 1
tur 1
tze 1
tzen 1
tzt 1
unities 1
verdi@@ 1
viel@@ 1
vier@@ 1
von@@ 1
wech@@ 1
weg@@ 1
wege 1
welche 1
welle 1
welt 1
wider@@ 1
wie 1
wies@@ 1
wirkungen 1
wo 1
wurz@@ 1
zel@@ 1
zell@@ 1
zelle 1
zielen 1
zun@@ 1
zur 1
zw@@ 1
zwe@@ 1
â@@ 1
è 1
ë@@ 1
ï@@ 1
ô@@ 1
ön@@ 1
ú@@ 1
über@@ 1
ă@@ 1
ć 1
ē 1
ť 1
ย 1
ย@@ 1
€ 1
你@@ 1
葱 1
送@@ 1
madeupword0000 0
madeupword0001 0
