的 283326
， 221398
。 143721
我 80848
我们 70125
是 68306
在 62294
了 55788
你 41349
&quot; 35703
一个 32707
有 27431
和 26403
这 25607
他们 25508
人 21590
就 19323
它 18510
这个 18407
都 18180
会 17853
他 17785
可以 17414
？ 17334
上 16547
也 16327
这些 15733
到 15199
中 14602
不 13830
说 13642
： 12866
- 12671
做 12214
对 12189
就是 11623
很 11251
来 11200
让 11123
但 11014
能 10883
如果 10568
而 10260
因为 10194
把 9813
被 9628
没有 9378
想 9184
里 9130
所以 9085
去 9033
现在 8812
她 8564
当 8480
知道 8465
什么 8439
这样 8285
问题 8272
但是 8265
要 8231
、 8207
从 8130
用 8112
一@@ 7625
, 7603
那 7593
自己 7538
你们 7477
将 7475
并 7458
它们 7412
个 7352
着 7283
给 7182
不是 7083
好 6970
更 6960
一些 6946
这是 6914
地 6890
开始 6790
需要 6596
为 6513
看到 6456
时 6431
时候 6288
年 6217
世界 6109
然后 6108
可能 6052
非常 6044
不@@ 6005
像 5964
多 5933
过 5903
与 5891
人们 5826
那些 5789
还 5749
. 5636
所 5535
一种 5401
已经 5348
东西 5135
最 5073
-- 5020
出 5004
于 5000
所有 4868
工作 4807
这种 4778
性 4759
下 4755
很多 4737
认为 4682
呢 4676
们 4650
· 4506
发现 4471
大@@ 4470
事情 4283
如何 4278
者 4210
看 4195
发生 4181
得 4123
这里 4117
子 4113
事 4091
或者 4002
一样 3997
不同 3921
吗 3870
研究 3843
孩子 3823
大 3784
国家 3777
生活 3770
地方 3737
那么 3722
后 3651
通过 3619
而且 3613
新 3610
还有 3610
重要 3515
大家 3477
改变 3416
告诉 3414
方式 3369
时间 3366
能够 3357
其他 3337
为什么 3274
以及 3260
并且 3223
人类 3212
关于 3202
美国 3201
以 3200
又 3198
或 3114
向 3075
吧 3054
使用 3050
故事 3038
比 2997
设计 2984
不会 2921
只是 2907
进行 2896
任何 2862
点 2806
前 2795
一起 2784
应该 2777
小 2776
希望 2736
成为 2735
因此 2722
得到 2717
技术 2707
那个 2703
系统 2702
觉得 2654
无@@ 2644
使 2603
一下 2593
不能 2593
来说 2580
数据 2566
人@@ 2562
正在 2549
必须 2527
只 2523
起来 2510
还是 2509
跟 2499
再 2479
社会 2475
化 2453
一 2429
信息 2429
真的 2426
方法 2397
对于 2385
其中 2365
问 2340
公司 2319
小@@ 2313
这@@ 2278
有@@ 2266
尔 2263
那里 2259
发@@ 2248
每个 2237
喜欢 2236
多@@ 2235
今天 2233
却 2217
甚至 2194
% 2192
成 2189
帮助 2184
存在 2169
怎么 2169
当然 2166
力 2163
上@@ 2157
岁 2151
作为 2148
: 2142
之后 2141
地@@ 2141
这么 2138
每 2127
真正 2123
另 2119
大脑 2097
高@@ 2096
！ 2092
完全 2085
斯 2072
一直 2065
来自 2057
一点 2054
生命 2051
出来 2046
想要 2034
找到 2031
实际上 2024
最后 2024
由 2020
♫ 2010
事实上 2009
了解 2006
同时 2006
起 2006
为了 1993
发展 1992
家 1992
影响 1984
也许 1973
情况 1966
创造 1964
中@@ 1938
其实 1901
两个 1891
两@@ 1888
决定 1886
想法 1876
月 1874
城市 1873
可 1859
才 1859
只有 1845
过去 1842
组织 1839
体 1837
意识 1837
没 1825
水 1824
结果 1822
选择 1817
相信 1816
过程 1797
电@@ 1796
） 1796
内 1791
项目 1782
车 1779
整个 1777
一次 1775
展示 1772
头 1767
之前 1758
（ 1756
三@@ 1751
同样 1748
拥有 1737
手 1733
如此 1725
简单 1723
当时 1720
写 1719
环境 1718
未来 1713
变得 1710
照片 1709
许多 1709
学 1708
产生 1707
看看 1704
政府 1698
原因 1688
水@@ 1688
动 1686
有些 1682
一切 1681
带 1670
加@@ 1667
感觉 1666
斯@@ 1654
的话 1650
之@@ 1645
生 1641
之间 1640
可@@ 1631
科学 1627
动物 1615
地球 1615
于是 1614
新@@ 1614
分@@ 1611
出@@ 1608
开@@ 1601
出现 1598
种 1598
朋友 1595
经济 1595
线 1594
我@@ 1592
量 1588
特@@ 1585
能力 1585
想象 1580
理解 1576
高 1572
天 1563
克 1562
特 1561
解决 1561
长 1551
那@@ 1547
走 1541
叫 1531
比如 1530
演讲 1529
提供 1527
器 1522
生@@ 1517
怎样 1510
学习 1508
钱 1507
海@@ 1502
听 1497
自@@ 1497
谢谢 1493
其 1492
最@@ 1490
变成 1489
例子 1476
一位 1475
而是 1473
道 1472
学生 1471
教育 1468
天@@ 1464
女性 1461
无法 1458
度 1455
手@@ 1454
10 1453
网络 1447
行为 1447
有趣 1444
成功 1438
行 1434
生物 1431
关系 1430
十@@ 1429
细胞 1414
爱 1406
好@@ 1403
马@@ 1402
20 1400
花 1399
谁 1394
长@@ 1393
拉@@ 1390
是否 1382
学校 1379
尔@@ 1376
经历 1376
心@@ 1372
不过 1368
－ 1367
所@@ 1361
之 1360
部分 1342
面 1342
声音 1340
拉 1337
下@@ 1336
思考 1336
全球 1333
正 1326
书 1311
... 1307
有人 1301
用@@ 1299
机 1296
一天 1295
外@@ 1293
住 1286
利用 1283
非洲 1278
带来 1271
物 1270
建立 1267
更好 1263
四@@ 1262
运动 1262
空间 1259
重@@ 1258
几@@ 1252
机会 1250
? 1248
她们 1248
讲 1246
1 1245
站 1245
身体 1245
科技 1228
之一 1225
； 1224
变化 1223
克@@ 1221
5 1220
光 1220
健康 1215
是因为 1215
我要 1212
那样 1205
意味着 1202
利 1200
场 1200
3 1199
数@@ 1198
特别 1196
德 1195
太 1192
实验 1192
动@@ 1190
意义 1189
世纪 1188
》 1184
巨大 1184
《 1183
完成 1183
罗@@ 1183
行@@ 1183
部 1179
同@@ 1175
等 1173
打@@ 1170
西@@ 1164
路 1164
尝试 1162
一件 1160
员 1159
入 1157
曾 1156
更@@ 1155
最终 1154
主@@ 1152
确实 1151
方面 1149
音乐 1147
电脑 1146
开 1144
历史 1141
控制 1140
五@@ 1138
文化 1138
全@@ 1137
感到 1137
万@@ 1133
卡@@ 1132
机器人 1131
复杂 1129
2 1128
我会 1128
多少 1123
时@@ 1123
该 1123
分享 1120
相@@ 1120
一定 1119
几个 1116
处 1115
利@@ 1114
片 1114
会@@ 1108
语言 1106
心 1103
目标 1100
进入 1100
ted 1099
性@@ 1097
啊 1096
宇宙 1096
光@@ 1087
小时 1086
获得 1086
做到 1085
前@@ 1084
掉 1084
安全 1083
次 1080
计划 1080
艺术 1077
医生 1075
放@@ 1075
游戏 1075
地区 1073
活动 1073
请 1073
间 1072
达 1070
基因 1067
更加 1065
作用 1061
治疗 1061
制造 1059
巴@@ 1059
听到 1058
方 1057
布@@ 1055
学@@ 1053
图 1052
然而 1052
联系 1051
式 1050
语 1048
食物 1048
大学 1047
另外 1046
中国 1038
接受 1037
条 1034
过@@ 1034
几乎 1030
解释 1030
流@@ 1029
工具 1027
对@@ 1026
名 1025
法 1025
才能 1022
模式 1022
叫做 1019
看起来 1019
参与 1017
总@@ 1017
第一个 1016
及 1014
建筑 1014
感 1014
死 1010
领域 1010
意思 1009
阿@@ 1009
回到 1007
当@@ 1007
4 1006
包括 1006
里面 1006
实现 1005
意 1005
见 1003
中心 1002
努力 1002
a 1001
大概 1001
继续 1001
作品 999
内@@ 998
大约 996
社区 994
自然 994
吃 993
老@@ 992
每@@ 991
保护 990
疾病 990
期 989
合作 986
家庭 980
一部分 979
而@@ 977
曾经 976
个人 975
儿 971
各种 971
重新 969
数 967
事实 964
本@@ 964
里@@ 963
位 961
力量 960
提@@ 958
印度 953
外 952
电影 951
头@@ 950
转@@ 948
原@@ 945
关注 943
做出 940
安@@ 940
画 940
米 939
进 939
得@@ 938
则 929
快 929
仅仅 927
答案 926
平@@ 925
指@@ 925
看@@ 925
实@@ 924
率 924
体@@ 923
市场 923
首先 923
从@@ 922
讨论 922
公@@ 921
州 921
拿 921
最大 921
车@@ 921
总是 919
产品 918
球 917
哈@@ 913
想到 913
30 911
50 911
太@@ 911
即使 910
制作 909
认识 908
下来 907
极@@ 907
传@@ 904
声 904
尼@@ 904
维@@ 904
或是 903
观察 903
比@@ 900
理@@ 899
已 898
先 895
格@@ 894
病人 894
区域 893
国@@ 892
机器 888
二@@ 887
定 887
每天 887
层 886
有关 886
形 885
容易 884
最好 884
政治 883
话 883
准备 882
寻找 882
感@@ 881
科学家 881
教@@ 880
资源 880
这一 880
事物 878
真@@ 878
如 877
战争 877
找 877
超过 877
些 876
挑战 875
起@@ 875
德@@ 874
买 873
理 872
大量 871
词 871
结构 870
门 869
正是 868
回@@ 867
数字 867
一张 866
口 866
身上 865
三个 864
反应 864
模型 864
分 863
一年 861
不断 861
国 860
鱼 859
科@@ 858
别人 856
类 855
面@@ 855
行动 854
主要 853
视频 853
件 852
一名 848
明白 847
现实 847
作 846
回 844
时代 843
此 843
病 843
发 842
注意 842
受@@ 841
热@@ 840
为@@ 839
深@@ 838
处理 835
以前 834
法@@ 833
笑 832
区 831
成@@ 830
正@@ 830
不仅仅 828
价值 826
受 826
显示 826
不要 825
大多数 824
观点 824
边 824
将会 823
男人 823
唯一 822
像是 818
汽车 818
类似 818
一条 816
在@@ 816
大部分 816
反@@ 815
用来 815
脑@@ 815
6 814
虽然 813
变@@ 812
死亡 809
交@@ 808
接下来 807
理论 807
机构 802
美元 802
年@@ 800
年代 800
或许 800
身@@ 799
比较 797
想@@ 796
说@@ 794
来@@ 792
通@@ 792
人口 791
海洋 790
第一次 790
女人 789
持续 789
病毒 789
身 789
号 788
那时 787
代表 786
很大 786
十分 785
知识 784
令人 783
有着 783
发明 782
空@@ 781
其它 779
办法 779
放在 779
通常 779
考虑 778
板 776
变 775
增长 774
少 774
材料 774
没@@ 774
哪里 773
非@@ 773
结束 772
能@@ 771
权 770
真实 769
一只 768
不到 768
方@@ 765
支持 764
直到 763
达到 762
上面 761
收@@ 760
母亲 760
自我 760
路@@ 760
步 759
最近 757
格 757
倍 754
8 752
制 752
观众 752
本 751
半@@ 750
形成 750
难 748
传统 747
实验室 747
师 747
推@@ 747
服务 747
第@@ 747
强@@ 745
远 745
媒体 742
能源 742
尽管 741
预@@ 739
分钟 738
不再 735
自由 733
图@@ 732
愿意 732
手机 732
有点 732
离开 732
八@@ 731
到底 731
百@@ 731
千@@ 730
概念 730
气 728
美@@ 726
来到 722
爱@@ 722
创新 721
名@@ 721
看着 721
谈论 721
越来越 721
具有 719
7 718
只要 718
合@@ 718
主义 716
记录 715
观 714
记得 713
飞@@ 712
明@@ 711
证明 711
风@@ 711
事@@ 710
加 710
合 710
生产 710
万 709
仍然 709
感受 708
15 705
回答 705
质 705
基本 704
色 704
提出 703
教 703
能量 703
古@@ 702
名字 702
后来 702
导致 702
探索 702
伟大 700
后@@ 700
目前 700
速度 699
化@@ 698
女@@ 698
正确 698
此@@ 698
言 697
重 693
分子 692
所有人 692
测试 692
父母 692
品 691
台 689
业 688
充满 687
错误 686
团队 685
父亲 685
看见 685
这件 685
进化 685
难@@ 685
复@@ 684
足够 684
100 683
建造 683
花@@ 683
越 683
试图 682
错 682
图片 681
关@@ 680
接着 680
坐在 679
谈 678
信@@ 677
因 677
群 677
然 676
老师 676
文@@ 675
日 675
作@@ 674
不仅 672
么 671
低@@ 671
几年 671
女孩 670
症 670
病@@ 669
物种 668
移动 668
设备 668
很@@ 667
称 667
例如 666
现象 666
局 665
角度 664
周@@ 663
战@@ 662
直接 662
计算机 662
范围 661
这张 660
口@@ 658
交流 657
乐@@ 656
投资 656
十年 654
带@@ 654
精@@ 654
至少 654
全世界 653
机@@ 652
植物 652
药物 652
那种 652
减少 651
家@@ 651
应用 651
癌症 651
保@@ 649
在于 649
亲@@ 648
内容 648
双@@ 648
块 647
增加 647
共@@ 644
应@@ 644
样子 644
装@@ 644
士 642
日@@ 642
9 641
眼@@ 641
放 640
相当 640
级 640
非 640
事件 639
本身 639
切@@ 638
相关 638
以@@ 637
形式 637
数学 636
根本 636
面对 636
超@@ 635
清楚 634
便 633
数量 633
程 633
而言 633
一项 632
有效 631
这项 631
儿童 630
• 629
年轻 629
意@@ 629
直@@ 629
学家 628
年前 627
不管 626
冰@@ 626
同 626
顿 625
产@@ 624
取 624
干@@ 623
马 623
亚@@ 622
的确 622
网站 622
要求 622
明 621
达@@ 621
造成 621
一场 620
奥@@ 620
读 620
做@@ 619
受到 618
尼 618
林 618
解 618
某些 617
走@@ 616
亿 615
游@@ 615
等等 615
英国 615
选 615
使得 614
危险 614
越@@ 614
兰@@ 613
立@@ 613
白@@ 612
药 612
解@@ 612
微@@ 611
这儿 611
进@@ 611
i 610
张 609
流 609
表现 609
」 608
如今 608
纳@@ 608
金@@ 608
「 607
型 607
山@@ 607
物质 607
节 606
七@@ 605
保持 605
管 605
低 604
单@@ 604
排@@ 604
人生 603
其他人 602
情@@ 602
短@@ 602
突然 602
程度 601
基@@ 600
每年 600
k@@ 599
好像 599
星 599
波@@ 599
核@@ 598
基本上 597
明显 597
普@@ 597
入@@ 596
工 596
是从 596
♪ 595
分析 595
方向 595
活@@ 595
远@@ 595
需 595
40 594
战 594
先@@ 593
养@@ 593
000 589
位置 589
打 589
气@@ 589
永远 589
艾@@ 589
要@@ 589
六@@ 588
dna 587
互联网 587
失去 587
随着 587
很快 586
时刻 586
选@@ 585
问@@ 585
飞机 585
以后 584
制@@ 584
快乐 583
拍摄 583
正如 583
不得不 582
指 582
约 582
帮 581
过来 581
失@@ 578
基础 577
经常 577
结@@ 575
预测 575
地图 574
美 574
困难 571
只能 570
落 570
肯定 569
跑 569
梦想 568
讲述 568
电 567
情 566
火@@ 566
功能 565
经@@ 564
萨@@ 564
夫 563
由于 563
计算 563
根据 562
表@@ 562
． 562
体验 561
定@@ 560
不想 559
严重 559
例 559
再@@ 559
画@@ 559
离 559
周围 557
上帝 555
当地 555
连接 555
往 554
除了 553
除 552
令人@@ 550
百万 550
相同 550
纽约 550
1@@ 549
即 548
恩 548
状态 548
一段 547
书@@ 547
哦 547
尽@@ 546
近 546
刚刚 545
妈妈 545
描述 545
文 545
欧洲 545
民主 545
12 544
下面 543
女 543
医疗 541
定义 541
活 541
加入 540
令 539
兰 539
英里 539
风 538
卡 537
人员 536
实际 536
来看 536
眼睛 536
院 536
传播 535
可是 535
强 535
手术 534
经过 534
别 533
奇 532
所说 532
担心 532
热 532
干 531
表达 531
装 529
遇到 529
姆 528
介绍 527
关键 527
提高 527
米@@ 527
面临 527
具 526
收入 526
眼 526
久 525
似乎 525
修@@ 524
暴力 524
是不是 523
医院 521
尤其 521
投@@ 521
参加 520
嗯 520
料 520
组成 520
那儿 520
常@@ 519
接@@ 519
界 519
等@@ 519
东@@ 518
开发 518
有时 518
多么 517
室 517
就@@ 517
称为 517
至 517
专家 516
黑@@ 516
一半 515
一般 515
有个 515
民 515
素 514
包@@ 513
某个 513
知@@ 513
觉 512
说明 512
任务 511
感兴趣 511
木@@ 511
信号 510
效果 510
真 510
贝@@ 510
值 509
回来 509
造@@ 509
60 508
各位 508
强大 508
神@@ 508
象 508
他人 507
力@@ 507
正常 507
拍 506
星@@ 506
样 506
英@@ 506
法律 504
美丽 504
提到 503
物@@ 503
自 503
首@@ 503
卖 502
生存 502
石油 502
莱@@ 502
电话 501
确定 501
哪 500
这次 500
海 499
第一@@ 499
业@@ 498
其@@ 498
完美 498
伊@@ 497
您 497
音@@ 497
收集 496
本书 496
假@@ 495
管理 495
停@@ 494
创@@ 494
如@@ 494
应 494
某种 494
照@@ 494
风险 494
建 493
托@@ 493
空 493
航@@ 493
调查 493
共同 492
十 492
危机 492
取@@ 492
密@@ 492
导@@ 492
程序 492
因素 491
我能 490
第二@@ 490
艺术家 490
一旦 489
不错 489
玩 489
软件 489
道德 489
森林 488
现@@ 488
运用 488
不用 486
亚 486
段 486
一家 485
下去 485
南@@ 485
团 485
思想 485
虫 485
阶段 485
红@@ 484
岛 483
科 483
听@@ 482
政策 482
精神 482
纳 482
自身 482
运@@ 482
九@@ 481
论@@ 481
集 481
到达 480
妇女 480
表演 480
音 480
25 479
知 479
论 479
助 478
房子 478
派 478
表明 478
从来 477
富@@ 477
标@@ 477
球@@ 477
林@@ 476
北@@ 474
还要 474
房间 473
时期 473
聪明 473
训练 473
树@@ 472
沙@@ 472
消@@ 472
广@@ 471
持@@ 471
整@@ 471
神奇 471
节@@ 471
狗 470
用于 470
视觉 470
o 469
威@@ 469
市 469
捕@@ 469
点@@ 469
线@@ 468
声@@ 467
奇怪 467
森 467
真是 467
11 466
图像 466
水平 466
男性 466
信 465
各@@ 465
产 464
全部 464
基于 464
害 464
血@@ 464
二 463
商 463
根@@ 463
照 463
腿 463
吸@@ 462
糟糕 462
组 462
英尺 462
计 462
调@@ 462
子@@ 461
导 461
无论 461
满 461
a@@ 460
别的 460
字@@ 460
消失 460
演@@ 460
坏 458
幸福 458
星球 458
随@@ 458
什么样 457
吉@@ 457
它会 457
患者 457
早@@ 457
一系列 456
标准 456
独@@ 456
细菌 456
绿色 456
试@@ 456
倒 455
医@@ 455
圣@@ 455
宗教 455
小孩 454
结合 454
追@@ 454
去年 453
味 453
建议 453
树 453
进步 453
集@@ 453
革命 453
人民 452
兴奋 452
运作 452
终@@ 451
角 451
土地 450
神经 450
结 450
试验 450
允许 449
失败 449
当中 449
模@@ 449
绝@@ 449
降@@ 449
需求 449
食 449
显然 448
权利 448
80 447
主 446
假设 446
百分之@@ 446
翻@@ 446
质量 446
通 446
两种 445
从而 445
恐惧 445
距离 445
防@@ 445
智慧 444
曼 444
记忆 444
&apos; 442
代@@ 442
纸 442
4@@ 441
9@@ 441
山 441
所谓 441
接触 441
之中 440
何@@ 440
到@@ 440
目的 439
绝对 439
触@@ 439
送 439
伯@@ 438
杰@@ 438
简@@ 438
打开 437
监狱 437
破@@ 437
经验 437
千 436
房 436
飞行 436
c 435
平等 435
企业 434
减@@ 434
清@@ 434
紧@@ 434
男孩 433
值得 432
想想 432
架 432
现代 432
会议 431
牛@@ 431
育 431
道@@ 431
压力 430
条@@ 430
塔@@ 429
视 429
角色 429
别@@ 428
美好 428
转 428
创作 427
向@@ 427
转变 427
杀@@ 426
设计师 426
飞 426
先生 425
商业 425
弗@@ 425
款 425
示 425
成长 424
算 424
队 424
乌@@ 423
列@@ 423
成本 423
端 423
金 423
动作 422
话题 422
颜色 422
引@@ 421
盘 421
第一 421
表面 421
食@@ 421
亿@@ 420
警@@ 420
射@@ 419
男@@ 419
行星 419
靠 419
5@@ 418
同事 418
对此 418
比如说 418
民@@ 418
花费 418
代 417
塞@@ 417
威胁 417
支@@ 417
油@@ 417
言@@ 417
单 416
存@@ 416
新闻 416
油 416
被@@ 416
70 415
体系 415
击 415
白 415
读@@ 415
婴儿 414
电视 414
装置 414
规则 414
连@@ 414
关心 413
多年 413
死@@ 413
称之为 413
一份 412
学院 412
仍 411
老 411
以为 410
四个 410
学到 410
注@@ 410
见@@ 410
一群 409
因@@ 409
处于 409
开放 409
船 409
国际 408
思维 408
条件 408
罗 408
j@@ 406
灯 406
讲@@ 406
野@@ 406
军 405
管@@ 405
轻@@ 405
福@@ 404
见到 404
课 404
写@@ 403
剧@@ 403
完 403
待 403
视@@ 403
且 402
举@@ 402
偏@@ 402
聚@@ 402
冲@@ 401
g@@ 400
n@@ 400
客 400
布 400
恶@@ 400
离@@ 400
刚 399
洛@@ 399
皮@@ 399
细@@ 399
买@@ 398
务 396
太阳 396
建@@ 396
政@@ 396
状况 396
藏 396
表 396
境 395
工@@ 395
市@@ 395
痛苦 394
笔 394
p@@ 393
对话 393
杀 393
特殊 393
18 392
形状 392
惊人 392
投入 392
沉@@ 392
特定 392
穿 392
试 392
以来 391
吸引 391
序 391
g 390
公民 390
玩@@ 390
西方 390
雷@@ 390
500 389
b 389
可怕 389
相反 389
青@@ 389
救@@ 388
断 388
晚上 388
有时候 388
项 388
圈 387
实 387
工程 387
观@@ 387
迷@@ 387
中间 386
年轻人 386
空气 386
专@@ 385
勒 385
发出 385
抗@@ 385
x 384
仅 384
和平 384
社会@@ 384
积@@ 384
儿子 383
刚才 383
剂 383
在座 383
帕@@ 383
神经@@ 383
突@@ 383
调 383
降低 383
塔 382
世界@@ 381
博物馆 381
情绪 381
棒 381
残@@ 381
牌 381
e 380
住@@ 380
剧 380
家伙 380
印@@ 379
废@@ 379
总统 379
第二个 379
草@@ 379
门@@ 379
充@@ 378
冲突 378
果@@ 378
物体 378
一步 377
怎么样 377
思@@ 377
普通 377
零@@ 377
优@@ 376
坐 376
每次 376
个@@ 375
查@@ 375
组@@ 375
网 375
公共 374
疯狂 374
考@@ 374
费 374
养 373
商@@ 373
收到 373
极 373
测量 373
行业 373
迪@@ 373
鼓掌 373
丝 372
学会 372
属于 372
幸运 372
出去 371
拯救 371
立 371
营@@ 371
银行 371
6@@ 370
互动 370
再次 370
冷@@ 370
很棒 370
智@@ 370
表示 370
这位 370
避免 370
内部 369
善@@ 369
弄 369
快速 369
有意思 369
瓦@@ 369
看待 369
90 368
之外 368
克里斯 368
左@@ 368
效 368
文章 368
测@@ 368
t 367
出生 367
击@@ 367
发表 367
听说 367
报@@ 367
换 367
第二 367
索@@ 367
联@@ 367
议@@ 367
博@@ 366
失 366
生长 366
盖@@ 366
苏@@ 366
跳@@ 366
造 366
提 365
箱 365
可能性 364
约@@ 364
蓝色 364
责任 364
遗@@ 364
协@@ 363
早期 363
逃@@ 363
d 362
家里 362
彼此 362
愿 362
改@@ 362
教授 362
着@@ 362
资金 362
阻止 362
顶@@ 362
领@@ 362
m 361
两年 361
根 361
群体 361
从未 360
大小 360
害怕 360
脑 360
世界各地 359
保证 359
探@@ 359
杂志 359
目@@ 359
看上去 359
证据 359
足@@ 359
高兴 359
取得 358
并@@ 358
所在 358
星期 358
神 358
举 357
假如 357
元 357
神经元 357
落@@ 357
麻@@ 357
d@@ 356
一生 356
亮 356
旧 356
暴@@ 356
未@@ 356
纸@@ 356
记@@ 356
周 355
大型 355
录@@ 355
旅@@ 355
气候 355
独立 355
巴 354
暗@@ 354
编@@ 354
近@@ 354
逐渐 354
邀请 354
长大 354
一块 353
他@@ 353
假 353
套 353
尽 353
息 353
诸@@ 353
护@@ 352
露 352
下降 351
兴趣 351
少@@ 351
课程 351
坚@@ 350
屏幕 350
态 350
感染 350
方案 350
i@@ 349
三 349
伦 349
停止 349
语@@ 349
任何人 348
压 348
容@@ 348
说话 348
200 347
坏@@ 347
早 347
曲 347
不幸 346
接近 346
无 346
限制 346
乱 345
信仰 345
处@@ 345
人会 344
工程师 344
懂 344
未 344
波 344
证 344
字 343
平均 343
置 343
规模 343
运行 343
阴@@ 343
居住 342
引起 342
漂亮 342
环@@ 342
连 342
阅读 342
物理 341
存 340
归@@ 340
快@@ 340
惊讶 340
登@@ 340
石@@ 340
秒 340
老鼠 340
差不多 339
弹@@ 339
洞 339
不可思议 338
土@@ 338
士@@ 338
情感 338
歌@@ 338
配@@ 338
r@@ 337
回家 337
园 337
武器 337
滑@@ 337
状 337
鼓励 337
办公室 336
理由 336
背景 336
脚 336
2@@ 335
7@@ 335
价格 335
华@@ 335
河 335
疫苗 335
身份 335
香@@ 335
3@@ 334
互@@ 334
同意 334
品@@ 334
易@@ 334
源@@ 334
质@@ 334
压@@ 333
石 333
身边 333
迪 333
c@@ 332
服 332
监@@ 332
利益 331
夫@@ 331
改善 331
百 331
确@@ 331
网@@ 331
认知 331
诊断 331
财富 331
退@@ 331
19@@ 330
埃@@ 330
结论 330
并非 329
成员 329
抵@@ 329
摩@@ 329
洗@@ 329
票 329
蚂蚁 329
负责 329
这场 329
部门 329
针对 329
供@@ 328
做些 328
文明 328
相似 328
消息 327
许@@ 327
费@@ 327
侵@@ 326
太阳能 326
有没有 326
相互 326
h@@ 325
世@@ 325
严@@ 325
常常 325
背后 325
适@@ 325
营 324
享受 323
差 323
报道 323
节目 323
一台 322
唱 322
西 322
谈@@ 322
面前 322
鸟 322
t@@ 321
人群 321
借@@ 321
军@@ 321
智 321
磁@@ 321
红色 321
美国@@ 321
记住 321
创意 320
女儿 320
将要 320
很难 320
温度 320
网上 320
致@@ 320
认@@ 320
家人 319
第三@@ 319
背@@ 319
贫穷 319
必@@ 318
火 318
益 318
目 318
相对 318
公开 317
哪些 317
脸 317
记者 317
识 317
b@@ 316
亿美元 316
局@@ 316
店 316
按 316
望 316
某 316
理念 316
领导 316
全新 315
啦 315
封@@ 315
搞@@ 315
气候变化 315
脚@@ 315
操@@ 314
放弃 314
班 314
边@@ 314
中有 313
土 313
妻子 313
平衡 313
控 313
服@@ 313
权@@ 313
毛@@ 313
留@@ 313
不够 312
年龄 312
报告 312
8@@ 311
伤@@ 311
圆@@ 311
墙 311
太空 311
深 311
看法 311
跳 311
较 311
s@@ 310
y@@ 310
上升 310
坦@@ 310
对待 310
权力 310
犯 310
艾滋病 310
一边 309
包含 309
占 309
基 309
就要 309
毒@@ 309
温 309
莫@@ 309
警察 309
隐@@ 309
m@@ 308
成果 308
核心 308
火星 308
生物@@ 308
赞@@ 308
一个@@ 307
创建 307
助@@ 307
哥@@ 307
牛 307
社交 307
船@@ 307
价 306
卫星 306
和@@ 306
比亚 306
温@@ 306
谷歌 306
公园 305
初@@ 305
层面 305
感谢 305
挺 305
相比 305
给予 305
霍@@ 305
麦@@ 305
一片 304
噢 304
座 304
急@@ 304
找出 304
熟悉 304
个体 303
份 303
创造力 303
参@@ 303
往@@ 303
怀@@ 303
次@@ 303
足 303
五 302
准 302
差异 302
本质 302
2000 301
世 301
医学 301
放到 301
种族 301
k 300
增@@ 300
承认 300
搜索 300
激@@ 300
码 300
色@@ 300
要是 300
题 299
不好 298
主题 298
人物 298
免费 298
捐@@ 298
日本 298
检测 298
清 298
终于 298
诗 298
阿富汗 298
馆 298
动力 297
旅行 297
破坏 297
迈@@ 297
l 296
互相 296
功@@ 296
化学 296
将来 296
现 296
诺@@ 296
从事 295
半 295
生物学 295
试着 295
异 294
怪@@ 294
文字 294
玛@@ 294
电子 294
电子@@ 294
究竟 294
菲@@ 294
鲁@@ 294
凯@@ 293
右@@ 293
案 293
英语 293
观念 293
不可@@ 292
包 292
巨@@ 292
影 292
比赛 292
的@@ 292
财@@ 292
顶 292
一句 291
之所以 291
位于 291
势 291
只@@ 291
夜 291
广告 291
星系 291
模拟 291
盖 291
信任 290
娜 290
量@@ 290
集中 290
页 290
马上 290
不了 289
伦@@ 289
体内 289
判 289
打算 289
昆虫 289
研究@@ 289
赛@@ 289
--- 288
元素 288
升@@ 288
器官 288
城 288
好处 288
展现 288
泰@@ 288
混@@ 288
短 288
稳定 288
经 288
药@@ 288
r 287
另一@@ 287
塑料 287
奇@@ 287
建设 287
思 287
援助 287
最初 287
积极 287
间@@ 287
乐 286
今年 286
任 286
景 286
曼@@ 286
诺 286
透@@ 286
全 285
原则 285
带到 285
度@@ 285
瑞@@ 285
错@@ 285
魔@@ 285
仔细 284
众@@ 284
循环 284
态度 284
留下 284
纪@@ 284
肉 284
话@@ 284
速 284
变革 283
喷@@ 283
奖 283
满@@ 283
误@@ 283
卖@@ 282
安 282
得以 282
排 282
智能 282
有用 282
自然@@ 282
街 282
障碍 282
一部 281
事业 281
呼吸 281
杂@@ 281
漫@@ 281
灰@@ 281
电视@@ 281
采用 281
交 280
克斯 280
制度 280
华 280
后面 280
工厂 280
平台 280
赛 280
适应 280
附近 280
团体 279
女士 279
接 279
潜@@ 279
而已 279
切 278
宝@@ 278
必要 278
索 278
贵 278
走进 278
伤 277
初 277
尼亚 277
幸@@ 277
弃 277
比例 277
维 277
货@@ 277
道路 277
食品 277
14 276
习惯 276
唱@@ 276
巴西 276
恐龙 276
确保 276
种@@ 276
肢 276
儿@@ 275
史@@ 275
备 275
密 275
延@@ 275
很少 275
欧@@ 275
演奏 275
燃料 275
爆炸 275
秘密 275
获@@ 275
词@@ 275
贴 275
那天 275
额 275
依然 274
南 274
反 274
异@@ 274
独特 274
生产@@ 274
笑声 274
类@@ 274
肿瘤 274
蜜蜂 274
难以置信 274
专业 273
丽@@ 273
也就是说 273
友 273
实在 273
微生物 273
电池 273
精神@@ 273
蓝@@ 273
区别 272
射 272
效率 272
旅程 272
灭绝 272
百万@@ 272
示@@ 272
这点 272
邮件 272
21 271
到处 271
场@@ 271
或者说 271
散@@ 271
标 271
碳 271
称@@ 271
谱 271
述 271
伤害 270
内心 270
戏@@ 270
批@@ 270
自动 270
谈到 270
谷 270
非常@@ 270
u@@ 269
命 269
展@@ 269
往往 269
恢复 269
所知 269
晚@@ 269
毒 269
沟通 269
猜 269
蛋白质 269
负@@ 269
一段时间 268
为何 268
妙 268
富有 268
左右 268
常 268
细节 268
著名 268
蒙@@ 268
酒 268
顺@@ 268
骨 268
吃@@ 267
如同 267
歌 267
消耗 267
牙@@ 267
系 267
贡献 267
追求 267
奇妙 266
报 266
16 265
密码 265
提醒 265
污染 265
美金 265
成就 264
还@@ 264
便@@ 263
恰@@ 263
技能 263
激励 263
糖 263
缩 263
贫困 263
长期 263
骨@@ 263
n 262
主意 262
伦敦 262
各个 262
培养 262
工业 262
晚 262
案例 262
梅@@ 262
游 262
餐 262
1000 261
免@@ 261
博客 261
员工 261
堆 261
察@@ 261
幅 261
应对 261
现场 261
用户 261
粒子 261
进一步 261
重复 261
零 261
休@@ 260
余 260
四 260
居@@ 260
很小 260
操作 260
术@@ 260
机制 260
步@@ 260
职@@ 260
职业 260
胡@@ 260
解决方案 260
谈谈 260
释放 260
黑人 260
二十@@ 259
去@@ 259
完整 259
成千上万 259
托 259
约翰 259
耐@@ 259
获取 259
领 259
冷 258
加上 258
希@@ 258
弱 258
评@@ 258
趋势 258
以上 257
农业 257
却是 257
原理 257
施@@ 257
旁边 257
登 257
相机 257
英雄 257
菜 257
迅速 257
途径 257
&#91; 256
划@@ 256
换@@ 256
猫 256
穿过 256
迹 256
客@@ 255
左边 255
幼@@ 255
救 255
私@@ 255
蜂@@ 255
进去 255
震@@ 255
y 254
丹 254
坚持 254
皮肤 254
粉@@ 254
资料 254
进来 254
一座 253
作者 253
慢慢 253
撞 253
求@@ 253
灵@@ 253
热情 253
竞争 253
记 253
&#93; 252
义 252
交易 252
原 252
原始 252
底 252
形@@ 252
感知 252
抽@@ 252
攻击 252
犯罪 252
珍@@ 252
菌 252
酷 252
重大 252
佛@@ 251
台@@ 251
宣@@ 251
心理 251
抗 251
特征 251
类型 251
超级 251
部落 251
铁@@ 251
高度 251
默@@ 251
作家 250
刚@@ 250
反对 250
右边 250
指出 250
永@@ 250
社@@ 250
规@@ 250
适合 250
与@@ 249
付@@ 249
安全@@ 249
官 249
总 249
演 249
演示 249
痛 249
移 249
隐藏 249
乔@@ 248
仅@@ 248
你@@ 248
倒@@ 248
公众 248
支 248
断@@ 248
深入 248
满足 248
衣服 248
说法 248
劳@@ 247
垃圾 247
开心 247
惊@@ 247
掌握 247
某种程度 247
校@@ 247
楼 247
皮 247
舞台 247
艺术@@ 247
购买 247
叫@@ 246
启发 246
呆 246
期间 246
样@@ 246
理想 246
经济@@ 246
送@@ 246
邦 246
丰富 245
五年 245
发展中国家 245
广泛 245
早上 245
河@@ 245
之类 244
公共@@ 244
具体 244
农@@ 244
哪个 244
怀疑 244
恒星 244
执@@ 244
爸爸 244
看过 244
衰@@ 244
请@@ 244
/ 243
一本 243
外面 243
张@@ 243
弹 243
心脏 243
望远镜 243
版 243
玩具 243
今@@ 242
慢 242
拍@@ 242
拒绝 242
相 242
组合 242
草 242
面积 242
驾驶 242
s 241
为此 241
二氧化碳 241
偷@@ 241
前面 241
历@@ 241
处在 241
术 241
源 241
静@@ 241
友@@ 240
复制 240
小小的 240
很长 240
更大 240
期待 240
没什么 240
醒 240
ca 239
人体 239
大规模 239
寄@@ 239
来源 239
松 239
注意力 239
轮 239
银@@ 239
u 238
停 238
厅 238
得出 238
找@@ 238
报纸 238
渴望 238
理性 238
聚集 238
路上 238
这会 238
闪@@ 238
人性 237
储@@ 237
告 237
堡 237
漫画 237
物品 237
群@@ 237
袋 237
al@@ 236
z@@ 236
不停 236
从中 236
以下 236
录 236
某@@ 236
气体 236
画面 236
碎 236
脊@@ 236
输@@ 236
长时间 236
刺激 235
剩下 235
影@@ 235
手段 235
脆弱 235
自闭症 235
饭 235
ted@@ 234
优秀 234
准确 234
博士 234
对象 234
改革 234
简直 234
走向 234
轮@@ 234
重点 234
an 233
技巧 233
枪 233
看来 233
补@@ 233
伊拉克 232
原来 232
回去 232
径 232
拿到 232
挑@@ 232
播 232
灾难 232
缺乏 232
致 232
角@@ 232
谈话 232
超越 232
一代 231
以色列 231
便宜 231
关联 231
典型 231
各种各样 231
多样性 231
检查 231
章 231
设想 231
说服 231
─ 230
丈夫 230
大众 230
大卫 230
审@@ 230
性别 230
是@@ 230
核 230
止 230
毒品 230
肉@@ 230
要说 230
e@@ 229
乘@@ 229
共 229
合适 229
大自然 229
始@@ 229
完@@ 229
峰 229
扫描 229
棒@@ 229
算@@ 229
能否 229
雷 229
不可 228
任@@ 228
判断 228
即@@ 228
寻 228
按照 228
期@@ 228
穆斯林 228
维持 228
耳@@ 228
联合国 228
血管 228
乳@@ 227
屋@@ 227
库 227
底@@ 227
强烈 227
桥 227
版@@ 227
等待 227
胜 227
p 226
军队 226
古老 226
启@@ 226
响 226
填@@ 226
太多 226
布鲁@@ 226
德国 226
极端 226
涉及 226
深刻 226
碰@@ 226
肥@@ 226
顺便 226
24 225
后果 225
呈现 225
命@@ 225
坐@@ 225
基因组 225
基金会 225
检@@ 225
瞬间 225
职 225
荒@@ 225
解决问题 225
铁 225
面包 225
黑暗 225
黑猩猩 225
18@@ 224
一面 224
关 224
农民 224
刻 224
同性恋 224
孤@@ 224
容 224
摇@@ 224
毛 224
求 224
若 224
袭击 224
要么 224
规 224
选举 224
19 223
丝@@ 223
了不起 223
传递 223
振@@ 223
朝@@ 223
横@@ 223
烟 223
l@@ 222
w@@ 222
做法 222
守 222
微 222
念 222
杯 222
生态系统 222
省 222
输入 222
17 221
199@@ 221
伊 221
原子 221
团@@ 221
士兵 221
席 221
患 221
截@@ 221
斗争 221
最高 221
桑@@ 221
版本 221
症状 221
辩论 221
麻烦 221
一百@@ 220
兹 220
图表 220
排放 220
搞 220
效@@ 220
法国 220
矛盾 220
良 220
验 220
哪儿 219
总结 219
把@@ 219
故@@ 219
果 219
象@@ 219
逊 219
一幅 218
三年 218
上去 218
哈 218
彻底 218
指数 218
摄@@ 218
母@@ 218
移@@ 218
穿@@ 218
竞@@ 218
美妙 218
雨 218
x@@ 217
习@@ 217
人心 217
名叫 217
寿命 217
带给 217
年里 217
推动 217
改造 217
有所 217
猎@@ 217
致力于 217
视角 217
一套 216
丁 216
他会 216
寻常 216
居民 216
汉@@ 216
湾 216
片@@ 216
益@@ 216
种类 216
行走 216
诱@@ 216
调整 216
链 216
交谈 215
忘记 215
房@@ 215
跑@@ 215
198@@ 214
不久 214
丽 214
代码 214
即将 214
围@@ 214
夜@@ 214
我用 214
护 214
既 214
有力 214
期望 214
标记 214
然@@ 214
脸@@ 214
采取 214
一致 213
伙伴 213
取决于 213
好奇 213
尾@@ 213
教师 213
普遍 213
没错 213
相当于 213
管理@@ 213
血 213
赋予 213
转移 213
震惊 213
一点点 212
万美元 212
办 212
印象 212
合理 212
安德森 212
损@@ 212
无论是 212
材 212
科学@@ 212
策略 212
识别 212
载 212
驱动 212
传 211
估计 211
作出 211
依赖 211
共享 211
回应 211
好消息 211
征@@ 211
忘 211
末 211
极其 211
浪费 211
演员 211
特性 211
300 210
同一个 210
喜@@ 210
固定 210
奶@@ 210
工人 210
建筑师 210
强调 210
授@@ 210
死去 210
沙漠 210
浪@@ 210
浮@@ 210
甲@@ 210
置@@ 210
耶@@ 210
避@@ 210
除非 210
领袖 210
党 209
可行 209
实践 209
易 209
灵感 209
羊 209
识@@ 209
课@@ 209
还会 209
雅@@ 209
万人 208
医疗@@ 208
孔 208
展 208
开车 208
或@@ 208
打印 208
提升 208
曲线 208
朗@@ 208
汇@@ 208
治 208
真相 208
股 208
两 207
两者 207
争@@ 207
人数 207
全国 207
寻求 207
户 207
猴子 207
省@@ 207
脏 207
一遍 206
公里 206
小说 206
措施 206
播放 206
教堂 206
犯@@ 206
看不到 206
艰难 206
资@@ 206
赶@@ 206
随后 206
介@@ 205
做成 205
分布 205
哥 205
奖@@ 205
奶 205
库@@ 205
悲@@ 205
斯特 205
构成 205
沃@@ 205
治@@ 205
照顾 205
生意 205
! 204
an@@ 204
倾向 204
地点 204
奥 204
恶 204
本来 204
机械 204
毫@@ 204
汽@@ 204
瓶 204
迫@@ 204
难以 204
鞋 204
鲜@@ 204
爬 203
穷人 203
进展 203
重建 203
13 202
一辆 202
专注 202
动机 202
千年 202
埃及 202
招@@ 202
板@@ 202
良好 202
蒂@@ 202
责 202
跨@@ 202
达成 202
速@@ 202
隔@@ 202
ro@@ 201
乐观 201
列 201
前进 201
哪@@ 201
喝 201
嘛 201
围绕 201
基础设施 201
客户 201
律 201
我来 201
政 201
渔@@ 201
玩耍 201
现有 201
由@@ 201
穿着 201
第三个 201
苦@@ 201
街道 201
计@@ 201
诞生 201
领导者 201
久@@ 200
乎 200
五个 200
占@@ 200
够 200
大陆 200
就算 200
岛@@ 200
改进 200
明确 200
构 200
电力 200
贝 200
除@@ 200
鱼@@ 200
了@@ 199
叶 199
呀 199
意见 199
愤怒 199
成立 199
染@@ 199
样本 199
萨 199
闻 199
in 198
临@@ 198
人士 198
响@@ 198
守@@ 198
想起 198
留 198
验@@ 198
一篇 197
依靠 197
几天 197
化石 197
历史@@ 197
发挥 197
当作 197
戴@@ 197
撒@@ 197
消费者 197
环保 197
盒子 197
矿@@ 197
算法 197
胎 197
观看 197
隆 197
交通@@ 196
伊朗 196
倾听 196
刻@@ 196
哇 196
幻灯片 196
座@@ 196
形态 196
挥@@ 196
楼@@ 196
洲 196
睡眠 196
紧张 196
说道 196
都@@ 196
驾@@ 196
企业家 195
体现 195
准@@ 195
发布 195
合成 195
地位 195
奖励 195
意外 195
潜力 195
片段 195
琳 195
短信 195
私人 195
糟 195
绿@@ 195
肯尼亚 195
觉@@ 195
费用 195
便是 194
地面 194
字母 194
康@@ 194
拼@@ 194
插@@ 194
效应 194
教学 194
村庄 194
福 194
移民 194
程@@ 194
自行车 194
衡量 194
辨@@ 194
送到 194
采访 194
难民 194
频@@ 194
义@@ 193
以至于 193
副@@ 193
南非 193
启动 193
悬@@ 193
执行 193
激情 193
热爱 193
茨 193
险@@ 193
高中 193
丢@@ 192
小组 192
干细胞 192
爱因斯坦 192
祖先 192
覆盖 192
轻 192
重要性 192
ha@@ 191
ri@@ 191
交通 191
商品 191
固@@ 191
培@@ 191
对方 191
影片 191
惊奇 191
泡 191
筹@@ 191
耗@@ 191
逻辑 191
驱@@ 191
保存 190
决@@ 190
卫生@@ 190
另@@ 190
忽略 190
怪 190
戴 190
普 190
景@@ 190
查 190
洋 190
消费 190
王@@ 190
生物学家 190
经济学家 190
较@@ 190
运 190
3d 189
严肃 189
件事 189
公平 189
城@@ 189
律师 189
愿望 189
打电话 189
折 189
没法 189
潮 189
牧@@ 189
自由@@ 189
苦 189
范 189
轨道 189
陈@@ 189
雨@@ 189
飞行器 189
黄@@ 189
一无@@ 188
上学 188
于@@ 188
付 188
室@@ 188
想像 188
承诺 188
流行 188
激动 188
激发 188
繁@@ 188
羞@@ 188
肌肉 188
采@@ 188
额外 188
.@@ 187
主义者 187
仪 187
修复 187
反馈 187
号@@ 187
复 187
戈@@ 187
显@@ 187
活跃 187
液 187
现状 187
睡 187
脱@@ 187
舞@@ 187
谢@@ 187
赢得 187
集体 187
麦 187
龙 187
45 186
丹@@ 186
之内 186
分之一 186
可见 186
常见 186
引发 186
泡@@ 186
白色 186
粉 186
精彩 186
负 186
这方面 186
侧 185
促进 185
利亚 185
呼@@ 185
奇迹 185
枪@@ 185
椅子 185
母 185
琴 185
蒙 185
一颗 184
专利 184
加州 184
即便 184
告@@ 184
床 184
打破 184
放大 184
桌@@ 184
直觉 184
随 184
难道 184
静 184
ma@@ 183
o@@ 183
似 183
兄弟 183
单词 183
域 183
尊重 183
尖@@ 183
彩@@ 183
患有 183
来讲 183
潜在 183
积 183
缺@@ 183
角落 183
边缘 183
途 183
不同@@ 182
举个 182
付出 182
优势 182
修 182
千万 182
图案 182
微小 182
抛@@ 182
拿@@ 182
旋转 182
致命 182
里克 182
阿拉伯 182
雪 182
ar@@ 181
仪器 181
企鹅 181
宽@@ 181
差别 181
庞大 181
开展 181
更为 181
毕业 181
测 181
禁 181
篇 181
规划 181
跟@@ 181
销 181
400 180
z 180
名为 180
情形 180
整体 180
海豚 180
点子 180
瓦 180
种植 180
衣 180
评论 180
场景 179
尊@@ 179
州@@ 179
幻@@ 179
怎么办 179
慈@@ 179
暂@@ 179
疟疾 179
继@@ 179
血液 179
认 179
轴 179
逆@@ 179
邻居 179
金钱 179
专门 178
及@@ 178
层@@ 178
批 178
担@@ 178
捕 178
春@@ 178
暗 178
有限 178
构建 178
珊瑚 178
舞蹈 178
虚@@ 178
蚊子 178
认真 178
责@@ 178
钢@@ 178
黑 178
以外 177
做好 177
吃惊 177
同情 177
度过 177
抓住 177
标签 177
每当 177
涂@@ 177
混乱 177
熊 177
磅 177
神秘 177
蛋 177
赢 177
不起 176
全球化 176
关键@@ 176
固 176
封 176
当今 176
恐@@ 176
提取 176
摆脱 176
族@@ 176
混合 176
练习 176
美洲 176
道理 176
部@@ 176
金属 176
钟 176
％ 176
云 175
冒险 175
可爱 175
培训 175
塑造 175
境@@ 175
实施 175
带有 175
应当 175
忽视 175
播@@ 175
极了 175
标志 175
王 175
着迷 175
粗@@ 175
精确 175
罪@@ 175
股@@ 175
这条 175
违@@ 175
鲁 175
价值观 174
六 174
务@@ 174
印度@@ 174
受害者 174
否@@ 174
喝@@ 174
嘿 174
头脑 174
官@@ 174
展览 174
引擎 174
文件 174
杀死 174
模仿 174
熟@@ 174
猪 174
签@@ 174
统计 174
膜 174
表情 174
规律 174
软@@ 174
退 174
饰 174
催@@ 173
图书馆 173
展开 173
急 173
息@@ 173
损失 173
搜@@ 173
注 173
活着 173
硬@@ 173
紧 173
遭受 173
顾@@ 173
反映 172
影响力 172
懂得 172
拜 172
曲@@ 172
月@@ 172
极大 172
海岸 172
相互@@ 172
着手 172
禁@@ 172
运动员 172
预算 172
鲜 172
黑客 172
google 171
什 171
决策 171
制定 171
危@@ 171
多种 171
武@@ 171
死亡率 171
礼 171
礼@@ 171
穆@@ 171
老人 171
钻@@ 171
附@@ 171
预防 171
re@@ 170
咖啡 170
商业@@ 170
壮@@ 170
好事 170
密度 170
尽可能 170
拥@@ 170
摆@@ 170
日子 170
符号 170
辛@@ 170
难题 170
露@@ 170
一大@@ 169
之下 169
保罗 169
司@@ 169
同情心 169
夏@@ 169
夏天 169
录像 169
支付 169
显著 169
梦 169
狂@@ 169
生态 169
禁止 169
证@@ 169
谋@@ 169
资 169
这时 169
高效 169
不必 168
不知 168
争议 168
产业 168
信念 168
句 168
呼 168
在乎 168
奋@@ 168
崩溃 168
工作者 168
影像 168
忍@@ 168
怕 168
成分 168
摸 168
教室 168
木 168
洞穴 168
看出 168
穿越 168
争论 167
代价 167
伸@@ 167
使@@ 167
天空 167
子里 167
差@@ 167
平面 167
数以@@ 167
清晰 167
研发 167
种子 167
胞@@ 167
象征 167
追踪 167
镜 167
靠近 167
鲨鱼 167
鼓@@ 167
鼠 167
保健 166
做过 166
勒@@ 166
卫 166
地说 166
大楼 166
沮丧 166
流动 166
稍微 166
芬@@ 166
赫@@ 166
适用 166
饮食 166
一所 165
像@@ 165
刑 165
发光 165
在一起 165
大会 165
对抗 165
小型 165
层次 165
屋顶 165
属 165
巧 165
巧@@ 165
探讨 165
控制@@ 165
揭@@ 165
改 165
斗 165
最佳 165
桶 165
梯 165
火箭 165
玻璃 165
立刻 165
练 165
缩@@ 165
肺@@ 165
腐败 165
至@@ 165
阳光 165
与此同时 164
云@@ 164
元@@ 164
全球性 164
冲 164
厂 164
史 164
学者 164
慢@@ 164
手指 164
投票 164
无限 164
泄@@ 164
澳大利亚 164
班@@ 164
非常简单 164
加拿大 163
地下 163
宣传 163
忙 163
患@@ 163
扩大 163
物理学家 163
第 163
结婚 163
给出 163
而来 163
节奏 163
论文 163
配 163
随机 163
35 162
; 162
ra@@ 162
位@@ 162
俄@@ 162
兴 162
围 162
堂 162
昂贵 162
构@@ 162
氧气 162
白人 162
秒钟 162
稀@@ 162
衣@@ 162
败 162
饮@@ 162
魅力 162
黄色 162
･ 162
on 161
书籍 161
共同@@ 161
加速 161
商店 161
国会 161
对比 161
尚 161
平均@@ 161
心脏病 161
扮演 161
拖@@ 161
构造 161
架@@ 161
红 161
统计@@ 161
至今 161
评估 161
跟踪 161
远远 161
销售 161
sh@@ 160
十亿 160
卫生 160
发射 160
塞 160
婚姻 160
存活 160
手臂 160
技@@ 160
持 160
昨天 160
校 160
生成 160
符合 160
翻译 160
融合 160
贴@@ 160
重视 160
限 160
雪@@ 160
一组 159
中学 159
也@@ 159
决 159
创 159
北部 159
回收 159
搬@@ 159
替@@ 159
比尔 159
气球 159
浪 159
莎@@ 159
诚 159
这份 159
针 159
雇@@ 159
非常感谢 159
个人@@ 158
亡 158
凝@@ 158
分离 158
吸收 158
器@@ 158
安装 158
居 158
幕 158
建筑@@ 158
归 158
志愿者 158
推广 158
沿着 158
洛杉矶 158
直 158
笔@@ 158
第三 158
菌@@ 158
际 158
青少年 158
5000 157
世上 157
些@@ 157
伯特 157
出版 157
刷 157
在线 157
孩@@ 157
帝@@ 157
引力 157
感情 157
换句话说 157
灌@@ 157
牙 157
级@@ 157
编辑 157
蒂 157
酸 157
en 156
不少 156
众多 156
华盛顿 156
大象 156
尼日利亚 156
平 156
念@@ 156
才@@ 156
摄影 156
最新 156
植@@ 156
民众 156
漂@@ 156
特点 156
胶@@ 156
裂@@ 156
裔 156
该@@ 156
迁@@ 156
这片 156
f@@ 155
h 155
不止 155
临 155
依@@ 155
先进 155
光线 155
另一方面 155
合法 155
宏@@ 155
形象 155
慈善 155
扎@@ 155
景象 155
正好 155
毁 155
毕竟 155
玛 155
罪 155
设@@ 155
诊所 155
诗@@ 155
贫@@ 155
贷款 155
le@@ 154
伴 154
俄罗斯 154
厌@@ 154
去世 154
墨西哥 154
多数 154
妈 154
志@@ 154
扬 154
挂 154
系@@ 154
舞 154
这部 154
进程 154
陷入 154
亚洲 153
反而 153
取代 153
土壤 153
墙上 153
浮 153
淡@@ 153
略@@ 153
礼物 153
移植 153
莉 153
迎@@ 153
这句 153
酒@@ 153
雕@@ 153
丧@@ 152
俱@@ 152
单一 152
变暖 152
喜爱 152
工业@@ 152
弟@@ 152
描@@ 152
治愈 152
法则 152
流感 152
累 152
聚 152
肩@@ 152
芯片 152
走出 152
跟着 152
遥远 152
音乐@@ 152
鸡@@ 152
以此 151
再也 151
发起 151
恨 151
想象力 151
感官 151
服务@@ 151
欣赏 151
此类 151
疫@@ 151
研@@ 151
肯@@ 151
芬 151
貌 151
足以 151
转化 151
防止 151
领导人 151
鱼类 151
鸡 151
1.@@ 150
150 150
in@@ 150
一个月 150
供应 150
倾@@ 150
偏见 150
健@@ 150
凡 150
品牌 150
地上 150
大气 150
安排 150
币 150
得知 150
技术@@ 150
斯坦@@ 150
爆发 150
物理学 150
现代@@ 150
疼痛 150
碳@@ 150
空中 150
网络@@ 150
署 150
诗歌 150
资本主义 150
辱 150
这边 150
雄@@ 150
首 150
2010 149
20@@ 149
ch@@ 149
一首 149
之处 149
保留 149
兴@@ 149
卓@@ 149
只不过 149
哲学 149
回报 149
埃 149
壳 149
微笑 149
意大利 149
扭@@ 149
无线@@ 149
欢@@ 149
疗法 149
突破 149
让@@ 149
限@@ 149
三种 148
例@@ 148
信心 148
冰 148
十年代 148
厕所 148
婚@@ 148
广场 148
愚蠢 148
拿出 148
摄像机 148
教会 148
殖@@ 148
水下 148
瓶@@ 148
苹果 148
药品 148
踏@@ 148
这类 148
镜头 148
黑洞 148
兵 147
册 147
分配 147
原本 147
四年 147
床@@ 147
步骤 147
毕@@ 147
浓@@ 147
烧@@ 147
理查德 147
续@@ 147
罪犯 147
资助 147
迷 147
链接 147
0 146
一根 146
不行 146
偶@@ 146
几十年 146
听众 146
国人 146
多次 146
差距 146
希 146
并不@@ 146
志 146
惑 146
抑@@ 146
折@@ 146
朝 146
栋 146
毫无 146
界面 146
疑 146
秘@@ 146
自从 146
荣@@ 146
设施 146
设置 146
雕塑 146
频率 146
鸦 146
0@@ 145
几百@@ 145
出发 145
各 145
姐妹 145
巴基斯坦 145
年级 145
心里 145
怀 145
成绩 145
承担 145
护士 145
无聊 145
有点像 145
村@@ 145
灵 145
点击 145
素@@ 145
胜@@ 145
自然界 145
译@@ 145
质疑 145
资本 145
这座 145
非凡 145
题@@ 145
颠@@ 145
首歌 145
髓 145
一周 144
不安 144
仪式 144
众 144
佛 144
刀 144
勇气 144
单位 144
夸@@ 144
妇 144
定位 144
家族 144
少数 144
屋 144
属@@ 144
引用 144
房屋 144
携带 144
民族 144
深处 144
许 144
诉@@ 144
这幅 144
这有 144
队@@ 144
人类@@ 143
亿年 143
传感器 143
供 143
候@@ 143
升 143
博 143
壁 143
小心 143
延伸 143
徒 143
放进 143
滚@@ 143
灵魂 143
躺 143
陆 143
预期 143
2008 142
一把 142
不去 142
亿人 142
到来 142
叶@@ 142
命名 142
回顾 142
坐下 142
定律 142
异常 142
弄@@ 142
指导 142
按@@ 142
料@@ 142
污@@ 142
紫@@ 142
舒服 142
莎 142
197@@ 141
600 141
何 141
作业 141
农场 141
割 141
吨 141
廊 141
引导 141
桌子 141
猎 141
略 141
石头 141
脱 141
诉 141
辅@@ 141
达尔文 141
运转 141
那位 141
驶@@ 141
鲸 141
v@@ 140
三分之一 140
下一代 140
仿@@ 140
党@@ 140
历 140
受伤 140
头发 140
悦 140
承受 140
旁 140
查看 140
珊瑚礁 140
癌 140
粒 140
繁殖 140
艘 140
螂 140
远离 140
骨头 140
is 139
为止 139
冰川 139
判@@ 139
刺@@ 139
前往 139
剪@@ 139
地理 139
季 139
季@@ 139
家长 139
尖 139
年间 139
庆祝 139
恐怖主义 139
收 139
敌人 139
族 139
最为 139
本地 139
爬@@ 139
甘@@ 139
甚@@ 139
碰到 139
稍@@ 139
紧密 139
纤维 139
绝 139
肯 139
蒸@@ 139
认同 139
释 139
隔 139
鲍@@ 139
鸟类 139
两倍 138
从没 138
体会 138
勃 138
化学@@ 138
单独 138
好好 138
宗@@ 138
弗 138
心理学家 138
描绘 138
敬 138
欢迎 138
比起 138
洁 138
滥@@ 138
生命@@ 138
由此 138
编程 138
范@@ 138
规定 138
触 138
讨厌 138
辆 138
遍 138
一间 137
以便 137
价@@ 137
余@@ 137
公路 137
冒 137
剥@@ 137
动画 137
区@@ 137
区分 137
哭 137
姆@@ 137
孙@@ 137
实时 137
已@@ 137
建筑物 137
擅长 137
有机 137
格兰 137
法案 137
玩家 137
监控 137
看不见 137
祖@@ 137
祖母 137
缺 137
载@@ 137
遗传@@ 137
那一刻 137
邻@@ 137
乔治 136
传达 136
兹@@ 136
分裂 136
叙@@ 136
只会 136
同一 136
噪音 136
岩石 136
已有 136
椅 136
活力 136
献 136
用到 136
睡@@ 136
确信 136
种族@@ 136
胸@@ 136
腺 136
虚拟 136
设 136
词汇 136
赚 136
那边 136
陌生人 136
en@@ 135
万个 135
人工 135
充 135
充分 135
办@@ 135
含 135
售@@ 135
墙@@ 135
备@@ 135
多个 135
搭@@ 135
整合 135
旗 135
无数 135
显得 135
束 135
牢@@ 135
眼前 135
符 135
育@@ 135
裂 135
跨越 135
运输 135
饥饿 135
se@@ 134
事故 134
人工@@ 134
伴随 134
佩@@ 134
具备 134
南部 134
宫 134
家庭@@ 134
心理学 134
忍 134
损 134
敢 134
新型 134
柏@@ 134
波士顿 134
粘@@ 134
联合 134
虚拟@@ 134
访@@ 134
逐@@ 134
遇 134
部件 134
阻@@ 134
2007 133
75 133
一层 133
万年 133
人权 133
信息@@ 133
关闭 133
呼吁 133
屠杀 133
想着 133
户@@ 133
承@@ 133
接收 133
显微镜 133
汤@@ 133
消除 133
爱情 133
瑞 133
繁荣 133
续 133
见过 133
阿尔@@ 133
10@@ 132
一千@@ 132
一同 132
乐队 132
体制 132
使用@@ 132
促使 132
写作 132
卷@@ 132
命运 132
在我看来 132
坡 132
宣布 132
家乡 132
干什么 132
忧@@ 132
恩@@ 132
旋@@ 132
杆 132
松@@ 132
树木 132
炎 132
犹太@@ 132
瑟 132
纽约@@ 132
葡萄@@ 132
藏@@ 132
螺@@ 132
跨 132
过度 132
这块 132
酱 132
金融 132
销@@ 132
sa@@ 131
youtube 131
事儿 131
伊斯兰 131
六个 131
制造@@ 131
协议 131
卵 131
各自 131
含义 131
坚信 131
孟@@ 131
带领 131
抓@@ 131
数据库 131
晨 131
未知 131
植入 131
海底 131
演出 131
灾@@ 131
现今 131
百分@@ 131
细 131
讲话 131
诗人 131
超 131
转向 131
邮@@ 131
金融@@ 131
餐厅 131
龙@@ 131
el 130
li@@ 130
上来 130
伞 130
保障 130
储存 130
克服 130
利润 130
去过 130
嘴@@ 130
所能 130
技 130
搬 130
敏感 130
水中 130
目睹 130
科医生 130
童@@ 130
答@@ 130
著 130
视为 130
购@@ 130
贸易 130
透明 130
部位 130
阿 130
马克 130
马拉@@ 130
j 129
v 129
三维 129
亚马逊 129
人才 129
众人 129
停下来 129
协调 129
卷 129
告知 129
好玩 129
定性 129
幽默 129
数学家 129
斯蒂@@ 129
歧视 129
织@@ 129
统治 129
至关重要 129
获 129
评 129
课堂 129
连续 129
部队 129
风格 129
﹐ 129
facebook 128
亚当 128
国内 128
基金 128
天文@@ 128
夺 128
它@@ 128
小孩子 128
干净 128
开启 128
心中 128
手中 128
扩展 128
扩张 128
明天 128
正义 128
毁@@ 128
源于 128
缓 128
荷 128
莉@@ 128
誉 128
隐私 128
el@@ 127
son 127
一刻 127
京 127
伐 127
动态 127
卫@@ 127
厚 127
哺乳动物 127
堆@@ 127
娱乐 127
工作@@ 127
帮@@ 127
忘@@ 127
成人 127
据@@ 127
掌声 127
摄影师 127
杜@@ 127
框架 127
温室 127
潜水@@ 127
研 127
童 127
第二天 127
策@@ 127
组装 127
裁@@ 127
证实 127
辐射 127
障 127
颗 127
jo@@ 126
人口@@ 126
冬@@ 126
减 126
分开 126
劳 126
卢@@ 126
喊 126
国际@@ 126
圈@@ 126
天堂 126
妮 126
委员会 126
市场@@ 126
幻想 126
战斗 126
扔 126
掌控 126
旁@@ 126
旗@@ 126
日常生活 126
正式 126
游泳 126
炸弹 126
牺牲 126
看作 126
纵@@ 126
经济学 126
缺陷 126
自信 126
融入 126
起源 126
身处 126
重量 126
闭 126
页面 126
鲨 126
黄金 126
黎@@ 126
黑色 126
196@@ 125
chris 125
一支 125
两次 125
中东 125
交换 125
全都 125
出色 125
劲 125
后代 125
太棒了 125
太阳系 125
女士们 125
完全@@ 125
宾@@ 125
心灵 125
我花 125
抗生素 125
散 125
日常 125
某人 125
染 125
烈 125
烟@@ 125
生态@@ 125
痛@@ 125
皮层 125
精力 125
综@@ 125
胜利 125
转换 125
遭遇 125
针@@ 125
镇 125
面部 125
ab@@ 124
下午 124
不论 124
伙@@ 124
典@@ 124
势力 124
厨房 124
在场 124
增强 124
壁@@ 124
多久 124
大多 124
字典 124
学科 124
将@@ 124
小女孩 124
当下 124
恐怖分子 124
拆@@ 124
服用 124
欺@@ 124
此外 124
流行@@ 124
液体 124
激素 124
窗@@ 124
算是 124
综合@@ 124
聊 124
脑袋 124
自豪 124
虎 124
街头 124
讽刺 124
采集 124
鞋@@ 124
f 123
the 123
之上 123
乐器 123
分类 123
即兴 123
变为 123
古 123
善 123
址 123
奴隶 123
字体 123
孤独 123
尺寸 123
平方@@ 123
弦 123
役 123
彻@@ 123
抓 123
斯特@@ 123
无知 123
每周 123
泽@@ 123
犹@@ 123
瑞典 123
童年 123
统@@ 123
自主 123
良@@ 123
账@@ 123
避 123
骑@@ 123
鲸鱼 123
人人 122
场所 122
天气 122
尼斯 122
弯@@ 122
愿@@ 122
抱 122
拉斯 122
推进 122
斯坦 122
方便 122
无比 122
止@@ 122
此刻 122
民主@@ 122
派@@ 122
海水 122
火车 122
焦@@ 122
绘画 122
给@@ 122
编码 122
蛙 122
透 122
量子 122
革新 122
顺利 122
mi@@ 121
下载 121
传染@@ 121
俩 121
偶 121
前所未有 121
匹@@ 121
午餐 121
宝宝 121
干预 121
底部 121
惩罚 121
旧金山 121
渐渐 121
滑 121
满意 121
漏@@ 121
狱 121
竟然 121
绕 121
罕@@ 121
般的 121
贩@@ 121
阻碍 121
不像 120
伊斯兰教 120
作物 120
俗 120
具@@ 120
再生 120
厘@@ 120
叉 120
周期 120
基督@@ 120
天才 120
序列 120
悲剧 120
惯@@ 120
手里 120
扫@@ 120
抢@@ 120
挣扎 120
探测 120
放入 120
既然 120
极度 120
桌 120
梦@@ 120
沉默 120
清洁 120
燃烧 120
献@@ 120
申请 120
留在 120
相连 120
税 120
翻 120
芝加哥 120
解放 120
赖@@ 120
通讯 120
钱@@ 120
雇佣 120
雨林 120
骨骼 120
鬼 120
参与者 119
及其 119
发送 119
否则 119
大胆 119
将近 119
待@@ 119
很酷 119
戏 119
扔@@ 119
最早 119
焦虑 119
环 119
相应 119
福利 119
税@@ 119
穷@@ 119
织 119
荷@@ 119
街上 119
豹 119
过于 119
遍@@ 119
遵循 119
雌@@ 119
革@@ 119
顾客 119
22 118
er 118
一类 118
乐趣 118
从来不 118
公正 118
完善 118
式@@ 118
当成 118
森@@ 118
泥 118
洗 118
海报 118
燃@@ 118
生活@@ 118
痴@@ 118
私 118
穷 118
立即 118
补 118
解答 118
讲故事 118
设立 118
阔 118
音乐家 118
飞船 118
高级 118
mar@@ 117
乱@@ 117
争 117
会想 117
兆 117
哲学家 117
囚犯 117
地震 117
垂@@ 117
就让 117
恐怖 117
愉快 117
成像 117
所处 117
接到 117
握 117
政治@@ 117
斥 117
柱 117
沙 117
添@@ 117
电脑@@ 117
百分之 117
眼镜 117
祈祷 117
绝望 117
膨胀 117
艺 117
詹姆斯 117
这段 117
释@@ 117
阶@@ 117
gdp 116
or@@ 116
一会儿 116
一员 116
不足 116
创立 116
医 116
含有 116
喂@@ 116
大气层 116
弱@@ 116
征 116
惜 116
时光 116
机场 116
模糊 116
气味 116
河流 116
煤@@ 116
生理 116
疯 116
盘@@ 116
真实@@ 116
窗户 116
纳米 116
美分 116
艰@@ 116
莱坞 116
诺贝@@ 116
赚钱 116
阐述 116
陆@@ 116
非法 116
鼻子 116
龄@@ 116
-@@ 115
3000 115
99 115
di@@ 115
man 115
w 115
一方面 115
七 115
临床 115
享@@ 115
但@@ 115
公寓 115
共和@@ 115
内在 115
几周 115
出于 115
双手 115
司机 115
吓@@ 115
四处 115
困境 115
城市@@ 115
寒@@ 115
巴黎 115
希腊 115
悲伤 115
推特 115
揭示 115
收获 115
欲 115
浏览 115
猛@@ 115
疾 115
睡觉 115
篇@@ 115
绝大多数 115
聆听 115
腐@@ 115
般 115
花粉 115
说出 115
车祸 115
递@@ 115
黏@@ 115
0.@@ 114
2009 114
召@@ 114
各地 114
嘴 114
图形 114
外部 114
奏 114
孕@@ 114
对称 114
拥抱 114
月份 114
机遇 114
概率 114
洛 114
炼 114
烂 114
男子 114
粮食 114
背 114
英文 114
荡 114
酸@@ 114
集团 114
首次 114
mo@@ 113
th@@ 113
不让 113
人造 113
以往 113
公布 113
创伤 113
力学 113
叠 113
句子 113
小时候 113
峰@@ 113
当前 113
彩 113
抑郁 113
格斯 113
歇@@ 113
毫无疑问 113
法官 113
演化 113
演说 113
潮@@ 113
烤@@ 113
牵@@ 113
疗 113
目前为止 113
租@@ 113
粪@@ 113
经营 113
缘@@ 113
耳朵 113
薄@@ 113
边界 113
迷人 113
遗憾 113
醉 113
队伍 113
阶级 113
( 112
de@@ 112
to 112
‧ 112
主流 112
争取 112
产物 112
亲 112
保护区 112
全面 112
勇敢 112
变异 112
块@@ 112
基地 112
姐 112
工作室 112
并不知道 112
得多 112
折磨 112
抽象 112
晶@@ 112
替代 112
歌曲 112
结尾 112
编 112
蚁 112
连接@@ 112
陆地 112
隔离 112
骗@@ 112
魔术 112
as 111
与众不同 111
丰@@ 111
占据 111
可不是 111
史蒂夫 111
向前 111
哪怕 111
喻 111
困@@ 111
圣经 111
婚 111
媒介 111
安静 111
年来 111
开关 111
开来 111
打造 111
抱怨 111
敏@@ 111
普通@@ 111
暴 111
橡@@ 111
沃尔@@ 111
灵活 111
炸@@ 111
界@@ 111
疑@@ 111
研究所 111
硬 111
确认 111
究 111
纠@@ 111
网页 111
聊@@ 111
至于 111
苍@@ 111
藻 111
蜂 111
蝙蝠 111
走路 111
退休 111
闭@@ 111
2.@@ 110
ma 110
不太 110
举办 110
举行 110
乘 110
今日 110
冠@@ 110
决心 110
几分钟 110
国家@@ 110
塑@@ 110
宽 110
尸@@ 110
布朗 110
慰 110
承 110
抗议 110
抬@@ 110
按钮 110
整整 110
朱@@ 110
注射 110
涌@@ 110
灾 110
盲@@ 110
章@@ 110
纹 110
维度 110
老板 110
联盟 110
聚会 110
胶 110
警 110
询 110
赤@@ 110
镜子 110
2005 109
iphone 109
依旧 109
其次 109
农村 109
前提 109
呆@@ 109
和谐 109
富 109
察 109
就是说 109
岩 109
怀孕 109
成熟 109
打击 109
折叠 109
抱歉 109
教育@@ 109
数据@@ 109
某种意义 109
栏 109
档@@ 109
欧 109
漏 109
漫 109
玻@@ 109
番 109
秀 109
简 109
纪录 109
绳@@ 109
翼 109
讯@@ 109
访 109
评价 109
请求 109
bo@@ 108
亲爱 108
代人 108
博拉 108
受欢迎 108
各国 108
困扰 108
太平洋 108
失明 108
尴尬 108
工作人员 108
开玩笑 108
强迫 108
形容 108
摧毁 108
攀@@ 108
月球 108
概@@ 108
深海 108
深远 108
渡 108
男 108
画家 108
疫 108
瘾 108
监视 108
盯 108
竞争@@ 108
第一件 108
糖尿病 108
经典 108
脑部 108
自杀 108
访问 108
货 108
贫民窟 108
起到 108
重新@@ 108
鸟@@ 108
ca@@ 107
gps 107
me@@ 107
一头 107
不管@@ 107
交给 107
优雅 107
克里@@ 107
准则 107
北 107
南极 107
参观 107
多人 107
夜晚 107
奋 107
尚@@ 107
工程@@ 107
怎@@ 107
政治家 107
新闻@@ 107
档 107
潜水 107
特网 107
玉@@ 107
种种 107
科学研究 107
笑话 107
等于 107
缓慢 107
脉 107
腹@@ 107
议员 107
详细 107
读者 107
调节 107
走上 107
辑 107
返@@ 107
采 107
顿@@ 107
23 106
be@@ 106
仿佛 106
体重 106
保险 106
分散 106
刷@@ 106
害@@ 106
岸 106
开源 106
愈@@ 106
提议 106
栖息地 106
泥@@ 106
注入 106
笔记本电脑 106
第四@@ 106
缓@@ 106
艇 106
花园 106
若@@ 106
荧光 106
街@@ 106
见证 106
贾@@ 106
轻松 106
食用 106
65 105
david 105
ne@@ 105
一点@@ 105
中央 105
借助 105
冒@@ 105
几率 105
加利福@@ 105
匹配 105
十个 105
咖啡@@ 105
国王 105
塑料@@ 105
处理@@ 105
学位 105
审视 105
尼亚@@ 105
很多年 105
想一想 105
振 105
据 105
排列 105
有益 105
有过 105
末@@ 105
杰出 105
案@@ 105
站@@ 105
累@@ 105
纯@@ 105
臂 105
虫@@ 105
蛇 105
议 105
豆 105
这台 105
遇见 105
遥@@ 105
随时 105
雅 105
at@@ 104
x光 104
一堆 104
一来 104
一架 104
专业@@ 104
乡村 104
削@@ 104
十万 104
双 104
反射 104
口袋 104
可靠 104
困惑 104
墨西哥@@ 104
妹 104
威尔 104
廉@@ 104
引入 104
张图 104
总会 104
探险 104
来源于 104
段时间 104
法庭 104
游行 104
滴 104
硅@@ 104
精神疾病 104
肝@@ 104
观测 104
设定 104
迫 104
透过 104
部长 104
鼠@@ 104
2011 103
一分钟 103
东 103
今晚 103
使命 103
偶然 103
刑@@ 103
协作 103
卡车 103
基本@@ 103
奔@@ 103
尺@@ 103
巧克力 103
巨型 103
已知 103
幻觉 103
成年 103
拉丁@@ 103
数目 103
欲望 103
殖 103
爵@@ 103
狼 103
珠@@ 103
生气 103
留给 103
癌@@ 103
管道 103
绘制 103
聊天 103
营养 103
营销 103
蛛@@ 103
诚实 103
走过 103
路线 103
跳舞 103
通信 103
遭到 103
00 102
twitter 102
丁@@ 102
万年前 102
上方 102
两天 102
严 102
交互 102
代替 102
传输 102
你好 102
倡@@ 102
划 102
发明@@ 102
吻 102
回忆 102
地带 102
失望 102
夺@@ 102
好比 102
家园 102
小行星 102
当做 102
忠@@ 102
恰恰 102
意料 102
摩 102
撞@@ 102
时常 102
有幸 102
池 102
没人 102
消灭 102
清理 102
温暖 102
濒@@ 102
特质 102
现实@@ 102
疲@@ 102
肢体 102
脸上 102
街区 102
解决@@ 102
败@@ 102
阵@@ 102
随意 102
韩国 102
风暴 102
饼 102
高科技 102
.... 101
la@@ 101
pe@@ 101
一小部分 101
仍@@ 101
例外 101
依赖@@ 101
值@@ 101
兽 101
含量 101
咨@@ 101
喜 101
复杂性 101
外界 101
奏@@ 101
始终 101
实体 101
惊喜 101
惨@@ 101
我刚 101
换成 101
更新 101
有史以来 101
构想 101
查尔斯 101
猜测 101
的是 101
监管 101
砍@@ 101
统一 101
自我@@ 101
薪@@ 101
视野 101
讲讲 101
身为 101
输 101
酒店 101
钢琴 101
阵 101
非洲人 101
27 100
de 100
【 100
】 100
事是 100
交配 100
从根本上 100
估@@ 100
写下 100
凌晨 100
分成 100
化合物 100
午@@ 100
吹@@ 100
回事 100
在世界上 100
宁@@ 100
官员 100
平常 100
律@@ 100
恋@@ 100
恐怖@@ 100
意图 100
敬@@ 100
无论如何 100
有名 100
棕@@ 100
激活 100
灯泡 100
瑟@@ 100
田@@ 100
盈@@ 100
票@@ 100
第一步 100
群岛 100
肺 100
脉@@ 100
莱 100
菜@@ 100
虑 100
虾 100
谎@@ 100
这才 100
遗传 100
难以@@ 100
餐@@ 100
er@@ 99
~ 99
一副 99
上班 99
不见 99
六个月 99
再生@@ 99
冻 99
分别 99
创造@@ 99
匿名 99
厉害 99
反复 99
哥伦@@ 99
嗨 99
圣诞@@ 99
基因@@ 99
天然 99
宇宙@@ 99
宇航@@ 99
尔德 99
尾 99
工资 99
帮忙 99
店@@ 99
录制 99
彗星 99
扎 99
挖掘 99
撒谎 99
收益 99
教训 99
有害 99
桥@@ 99
正面 99
氏@@ 99
瑞士 99
生日 99
电子游戏 99
碎片 99
祖父 99
稿 99
端@@ 99
绕@@ 99
蓄 99
蜘蛛 99
视力 99
订@@ 99
过滤 99
顾 99
一切都是 98
不如 98
与其 98
人均 98
依据 98
分之@@ 98
可持续性 98
吞@@ 98
埋@@ 98
对应 98
山脉 98
底下 98
廷 98
成年人 98
战略 98
推出 98
搭建 98
无线 98
束@@ 98
果蝇 98
步行 98
消 98
牙齿 98
猜@@ 98
环境@@ 98
生病 98
皇@@ 98
破 98
确切 98
精英 98
约会 98
色彩 98
蚁@@ 98
计算机@@ 98
试试 98
负担 98
轮椅 98
迹@@ 98
郊@@ 98
键 98
随便 98
领导@@ 98
as@@ 97
car@@ 97
ck@@ 97
go 97
le 97
不在 97
丢 97
临床@@ 97
储 97
公 97
刊 97
北美 97
可乐 97
外星人 97
岗@@ 97
市长 97
干扰 97
微型 97
性质 97
感激 97
打印机 97
捕捉 97
探测器 97
搜寻 97
旅 97
极限 97
氢@@ 97
沃 97
滋@@ 97
系统@@ 97
缺少 97
肖@@ 97
肥胖 97
舒适 97
荣幸 97
西亚 97
资产 97
跃 97
逝 97
醒来 97
金枪鱼 97
长度 97
阿拉伯@@ 97
马斯 97
麦克@@ 97
26 96
三十 96
债@@ 96
军事 96
北极 96
单纯 96
原型 96
奸 96
对付 96
巴勒@@ 96
巾 96
帐@@ 96
年纪 96
序@@ 96
弟 96
惊叹 96
扰 96
指标 96
挡 96
挥 96
时间@@ 96
星期@@ 96
显而易见 96
有权 96
权威 96
染色体 96
根源 96
案件 96
海洋@@ 96
深度 96
烹饪 96
犯罪@@ 96
狮@@ 96
猫@@ 96
界限 96
社 96
稍 96
简短 96
糖@@ 96
维护 96
罕 96
羊@@ 96
考 96
联邦@@ 96
蛋@@ 96
蝇 96
裕 96
解读 96
讨@@ 96
躲@@ 96
限于 96
顶端 96
麦克 96
鼓舞 96
) 95
ck 95
nasa 95
亲密 95
人能 95
仁@@ 95
代谢 95
任意 95
众笑 95
做点 95
出售 95
创造性 95
土耳其 95
奥巴马 95
康复 95
德里 95
心理@@ 95
意愿 95
握@@ 95
撞击 95
数学@@ 95
无关 95
欺骗 95
沿@@ 95
激动@@ 95
烦@@ 95
畅@@ 95
码@@ 95
研究生 95
碰 95
简化 95
纽约时报 95
缩小 95
脱离 95
菲 95
萤火虫 95
薄 95
虐@@ 95
蛋白 95
融化 95
西班牙 95
覆 95
认可 95
贪@@ 95
辈 95
锁@@ 95
防 95
靠@@ 95
32 94
si@@ 94
不太@@ 94
不该 94
个性 94
亨@@ 94
人为 94
估 94
伴侣 94
刚果 94
副 94
化学物质 94
叙利亚 94
嘲@@ 94
地表 94
垃圾@@ 94
天然@@ 94
崇@@ 94
广 94
很多@@ 94
德拉 94
总之 94
恒 94
扩散 94
拍照 94
挪威 94
推 94
支撑 94
救援 94
数字化 94
无人机 94
早就 94
村子 94
毁灭 94
比喻 94
水源 94
洞@@ 94
津 94
焦 94
狗@@ 94
用途 94
神圣 94
纵 94
罩 94
膝@@ 94
设计@@ 94
询问 94
软 94
运算 94
雄性 94
餐馆 94
195@@ 93
it 93
一整@@ 93
一看 93
三角@@ 93
上述 93
两位 93
临时 93
主动 93
传到 93
似的 93
偷 93
制成 93
勃@@ 93
卢旺达 93
反应@@ 93
只用 93
司 93
合作@@ 93
听见 93
外交@@ 93
小镇 93
带上 93
廉 93
弄清楚 93
怎么回事 93
悟 93
投资者 93
折纸 93
挽救 93
摔@@ 93
教徒 93
标题 93
段@@ 93
毯 93
清单 93
湿@@ 93
爱尔@@ 93
独自 93
猜想 93
瘫@@ 93
盒 93
称作 93
翅膀 93
职业生涯 93
表格 93
这首 93
郁症 93
际@@ 93
高速 93
2006 92
di 92
ki@@ 92
lo@@ 92
ph@@ 92
乳腺癌 92
件@@ 92
何时 92
侵 92
兄@@ 92
六年 92
写道 92
劳动 92
卧@@ 92
奇特 92
委@@ 92
子弹 92
宜 92
审查 92
开发@@ 92
引人@@ 92
忌 92
抑制 92
拜访 92
推测 92
昂 92
此时 92
永久 92
沿 92
洋@@ 92
港 92
激进 92
狂 92
疗@@ 92
盟 92
真理 92
肠@@ 92
脂肪 92
被迫 92
诊 92
赠 92
镇@@ 92
闻@@ 92
com 91
ed 91
is@@ 91
上网 91
个性化 91
举手 91
典 91
分解 91
刚好 91
前景 91
劣 91
发现自己 91
取出 91
听听 91
在家 91
女孩子 91
妥@@ 91
宾 91
很久@@ 91
微软 91
拿走 91
挤 91
排放@@ 91
控@@ 91
无所@@ 91
暴力@@ 91
每秒 91
海地 91
湖@@ 91
溯@@ 91
激烈 91
灯光 91
状@@ 91
狭@@ 91
用水 91
直升@@ 91
督 91
硬件 91
窗 91
纳米@@ 91
英寸 91
荷兰 91
蔓延 91
被称作 91
谢谢@@ 91
谷@@ 91
负面 91
超市 91
辈子 91
这家 91
遮@@ 91
那条 91
邪恶 91
酒吧 91
锁 91
es 90
促@@ 90
假装 90
充满@@ 90
共鸣 90
凭@@ 90
啤酒 90
喜剧 90
园@@ 90
墨@@ 90
妹@@ 90
强度 90
恶心 90
成百上千 90
担忧 90
拔 90
搭 90
敌@@ 90
斤 90
无处@@ 90
最快 90
海中 90
海滩 90
灭@@ 90
猩猩 90
皆 90
盗@@ 90
盲人 90
相处 90
线索 90
考试 90
肤色 90
苏联 90
著@@ 90
裁 90
览@@ 90
言之 90
诚@@ 90
货币 90
赖 90
车辆 90
这样的话 90
这颗 90
&amp; 89
su@@ 89
两周 89
亦 89
伯 89
加纳 89
劳动力 89
千个 89
呃 89
味道 89
型@@ 89
埃塞俄@@ 89
天赋 89
头上 89
奥斯@@ 89
好奇心 89
始 89
姿势 89
对手 89
帐 89
底层 89
彼得 89
情景 89
想过 89
打交道 89
探 89
掩@@ 89
曲子 89
棉@@ 89
毫无@@ 89
派对 89
浸 89
深深 89
演讲者 89
父 89
环绕 89
生动物 89
田 89
疑问 89
病菌 89
盗 89
矿 89
纯粹 89
蓝 89
蔬@@ 89
讯 89
讲座 89
论者 89
轨迹 89
遍布 89
采取@@ 89
鉴@@ 89
镜@@ 89
骄傲 89
齐 89
co@@ 88
it@@ 88
po@@ 88
串 88
亮@@ 88
冥@@ 88
姐@@ 88
尺 88
怜 88
摄像@@ 88
斑@@ 88
柯@@ 88
燥 88
甜@@ 88
痪 88
盛@@ 88
磨 88
秘 88
逐 88
闲@@ 88
飞行@@ 88
齐@@ 88
al 87
ry 87
丘 87
印 87
吓 87
哭@@ 87
引 87
弥@@ 87
徒@@ 87
悲 87
抚@@ 87
摸@@ 87
棵 87
稳@@ 87
笑@@ 87
系列 87
肥 87
茶 87
衡 87
覆@@ 87
豪@@ 87
贯@@ 87
键@@ 87
ad@@ 86
da@@ 86
伽@@ 86
保护@@ 86
叔@@ 86
堵 86
挺@@ 86
敢@@ 86
旧@@ 86
柔@@ 86
梁 86
氧 86
瞧 86
竭 86
舒@@ 86
菇 86
雾 86
骑 86
..@@ 85
du@@ 85
on@@ 85
娘 85
幅@@ 85
幻 85
拓@@ 85
捉@@ 85
撕@@ 85
朵 85
杂 85
湖 85
穴 85
箱@@ 85
精 85
耀 85
耻 85
联 85
胰@@ 85
胺 85
航 85
艾 85
蘑@@ 85
谎 85
趣 85
120 84
ver@@ 84
保 84
刺 84
叔 84
均@@ 84
塑 84
掌@@ 84
框 84
渗@@ 84
渠@@ 84
炭 84
这样@@ 84
默 84
95 83
ay 83
da 83
ur@@ 83
唤@@ 83
啥 83
囊 83
增 83
奢@@ 83
屏@@ 83
御 83
忙@@ 83
恋 83
撼 83
旨@@ 83
沟 83
盐 83
磨@@ 83
糊@@ 83
轰@@ 83
遵@@ 83
钟@@ 83
频 83
28 82
ru@@ 82
us 82
兼@@ 82
厦 82
吹 82
喔 82
多样@@ 82
宝 82
岩@@ 82
巢 82
敲@@ 82
旋 82
杯@@ 82
沫 82
泉 82
洲@@ 82
液@@ 82
畏@@ 82
盛 82
联合@@ 82
艺@@ 82
阳@@ 82
韦@@ 82
2003 81
lin@@ 81
ol@@ 81
努@@ 81
势@@ 81
姑@@ 81
慨 81
捞 81
掘 81
故 81
无人@@ 81
望@@ 81
欣@@ 81
沼@@ 81
滴@@ 81
烷 81
篮@@ 81
胖@@ 81
苏 81
辞@@ 81
返 81
铺 81
需@@ 81
1960 80
800 80
il@@ 80
ka@@ 80
傻@@ 80
割@@ 80
坛 80
奴@@ 80
峡@@ 80
恒@@ 80
拜@@ 80
择 80
株 80
滚 80
灭 80
秩@@ 80
篷 80
纽@@ 80
绘@@ 80
罐 80
芭@@ 80
蚊@@ 80
计算@@ 80
购 80
辨 80
逮@@ 80
17@@ 79
2004 79
2012 79
丑@@ 79
困 79
妮@@ 79
忆@@ 79
慷@@ 79
棘@@ 79
泽 79
筒 79
终 79
罢@@ 79
舍 79
辆@@ 79
飓@@ 79
饱@@ 79
250 78
ag@@ 78
ly 78
na 78
丛@@ 78
井 78
什@@ 78
凭 78
剑@@ 78
央@@ 78
奈@@ 78
尤@@ 78
押 78
捷 78
替 78
氢 78
沉 78
烧 78
碑 78
纷@@ 78
苹@@ 78
蚀 78
裹 78
詹@@ 78
迟 78
遇@@ 78
酶 78
33 77
la 77
ley 77
习 77
似@@ 77
冻@@ 77
娅 77
寻@@ 77
尘@@ 77
席@@ 77
年人 77
彼@@ 77
性化 77
拟@@ 77
择@@ 77
暂 77
氏 77
津@@ 77
策 77
缝 77
蕴@@ 77
蜜 77
陷@@ 77
＂ 77
700 76
es@@ 76
ge@@ 76
ke 76
ti@@ 76
乎@@ 76
伏 76
况 76
却@@ 76
岸@@ 76
巡@@ 76
挨@@ 76
掌 76
攻@@ 76
旱 76
朗 76
汁 76
浴@@ 76
滤@@ 76
牌@@ 76
疏@@ 76
鹰 76
2001 75
ta@@ 75
候 75
借 75
冠 75
几 75
凡@@ 75
姥 75
安德@@ 75
悔 75
掉@@ 75
洪@@ 75
混 75
渡@@ 75
琼@@ 75
痕@@ 75
糕 75
胡 75
腾 75
臭@@ 75
误 75
院@@ 75
饥@@ 75
ceo 74
us@@ 74
伪@@ 74
否 74
喂 74
垫 74
宪@@ 74
岁@@ 74
惨 74
戒@@ 74
投 74
拨@@ 74
李@@ 74
枝 74
柱@@ 74
模 74
泛@@ 74
涨 74
滩 74
琴@@ 74
畏 74
纹@@ 74
罗斯 74
耕@@ 74
肚@@ 74
诊@@ 74
降 74
29 73
he@@ 73
予 73
佳 73
八 73
厄@@ 73
厚@@ 73
契@@ 73
寿 73
弊 73
惧 73
枯@@ 73
榜@@ 73
爆@@ 73
爷@@ 73
祝@@ 73
肾@@ 73
袭 73
谜@@ 73
谨@@ 73
迁 73
运动@@ 73
铺@@ 73
阅 73
阿拉@@ 73
am@@ 72
bi@@ 72
john 72
ter 72
会儿 72
厨@@ 72
句@@ 72
啸 72
太阳@@ 72
威 72
崭@@ 72
扇 72
携@@ 72
昏@@ 72
曾@@ 72
欲@@ 72
炸 72
繁 72
绑 72
翁 72
脂 72
舱 72
融@@ 72
诠@@ 72
赌 72
har@@ 71
乡@@ 71
仔@@ 71
剖@@ 71
圆 71
堪@@ 71
壮 71
奉@@ 71
宠@@ 71
尘 71
屁@@ 71
帽@@ 71
幕@@ 71
括 71
擦 71
池@@ 71
竹@@ 71
膀 71
荐 71
裤 71
越来@@ 71
途@@ 71
饲@@ 71
hi@@ 70
or 70
仓@@ 70
净 70
勇@@ 70
匠 70
含@@ 70
娃 70
宿@@ 70
慎 70
摆 70
敏 70
晓 70
析 70
狱@@ 70
砸 70
笼@@ 70
练@@ 70
腔 70
衷 70
驼 70
1990 69
mit 69
叹@@ 69
抉@@ 69
挤@@ 69
杉 69
瓜 69
笨@@ 69
裸@@ 69
觅@@ 69
谜 69
谬 69
趋@@ 69
遭 69
闹 69
陪@@ 69
陶@@ 69
霉@@ 69
乡 68
事实@@ 68
仑 68
危 68
卵@@ 68
史蒂@@ 68
吉 68
堵@@ 68
屈@@ 68
崛@@ 68
必 68
抖 68
披@@ 68
摄影@@ 68
汀 68
汇 68
涵@@ 68
溯 68
灯@@ 68
租 68
订 68
谦@@ 68
镑 68
驶 68
鳍 68
15@@ 67
85 67
免 67
匙 67
君@@ 67
塌 67
崖 67
忽@@ 67
殿 67
淫 67
淹@@ 67
爸 67
硫@@ 67
绑@@ 67
翔 67
般@@ 67
赞 67
醇 67
隙 67
194@@ 66
ch 66
hiv 66
mc@@ 66
侦@@ 66
凶@@ 66
删@@ 66
剩 66
勾@@ 66
协 66
哒 66
宰 66
尔斯 66
拖 66
撰@@ 66
有点@@ 66
棵@@ 66
涉 66
燃 66
爷 66
统 66
者@@ 66
薪 66
蜡@@ 66
蟑@@ 66
贷 66
轴@@ 66
酪 66
饭@@ 66
鸿@@ 66
麻 66
ba@@ 65
ho@@ 65
st@@ 65
ste@@ 65
to@@ 65
份@@ 65
侧@@ 65
合物 65
咬 65
喀@@ 65
婆 65
宅 65
惠@@ 65
挣@@ 65
爽 65
狄@@ 65
缚 65
赶 65
钥@@ 65
bu@@ 64
gi@@ 64
伟@@ 64
净@@ 64
券 64
召 64
右 64
姓 64
实验@@ 64
恼 64
慌 64
整 64
既@@ 64
橄@@ 64
淋@@ 64
秋@@ 64
讼 64
谋 64
豆@@ 64
髓@@ 64
do 63
mb@@ 63
pa@@ 63
vi@@ 63
乔 63
仰@@ 63
堪 63
墓@@ 63
娜@@ 63
恢@@ 63
执 63
斜 63
泣 63
涂 63
皂 63
竭@@ 63
糙 63
缝@@ 63
翰@@ 63
茎 63
荒 63
衍@@ 63
衫 63
贵@@ 63
辛 63
锻@@ 63
须 63
der 62
gu@@ 62
伴@@ 62
唤 62
套@@ 62
孙 62
氧@@ 62
溶@@ 62
罐@@ 62
舍@@ 62
蛮 62
辞 62
陌@@ 62
骆@@ 62
龟 62
2050 61
at 61
na@@ 61
九 61
傻 61
僵@@ 61
坑 61
埋 61
宜@@ 61
屿 61
拘@@ 61
撤@@ 61
春 61
梭 61
涉@@ 61
疾@@ 61
盟@@ 61
缘 61
耻@@ 61
虑@@ 61
谅 61
谱@@ 61
酬 61
闲 61
饼@@ 61
鼓 61
2002 60
bar@@ 60
ga@@ 60
伍@@ 60
倦 60
兽@@ 60
刀@@ 60
卑@@ 60
喇@@ 60
坠@@ 60
垒 60
幽@@ 60
惠 60
招 60
挖@@ 60
村 60
柜 60
泪 60
洁@@ 60
率@@ 60
眠 60
砖 60
碗 60
纽 60
耳 60
衷@@ 60
赏 60
距 60
青 60
饿 60
骚@@ 60
鹿 60
1998 59
37 59
47 59
ac@@ 59
ni@@ 59
呈@@ 59
妻 59
帜 59
愉@@ 59
拇@@ 59
暖@@ 59
栖@@ 59
溜@@ 59
烈@@ 59
玩笑 59
璃@@ 59
胃@@ 59
胆@@ 59
膊 59
茶@@ 59
葛@@ 59
西班@@ 59
训@@ 59
赫 59
躯@@ 59
辩 59
辩@@ 59
逼 59
逼@@ 59
非洲@@ 59
1980 58
3.@@ 58
ana 58
ber 58
ber@@ 58
te 58
tu@@ 58
个月 58
募@@ 58
墓 58
孕 58
尝 58
尿@@ 58
怒 58
擦@@ 58
枚 58
橙@@ 58
款@@ 58
汉 58
港@@ 58
疯@@ 58
疼 58
盐@@ 58
窝 58
翼@@ 58
耍 58
肠 58
胳@@ 58
蔽 58
貘 58
赌@@ 58
跌@@ 58
轨 58
迟@@ 58
野 58
钉 58
颗@@ 58
额@@ 58
1950 57
36 57
ed@@ 57
ja@@ 57
sh 57
伏@@ 57
伐@@ 57
伙 57
刊@@ 57
叛@@ 57
呈 57
抱@@ 57
挂@@ 57
挫@@ 57
措 57
敞@@ 57
氮 57
申@@ 57
盲 57
瞄@@ 57
稳 57
绪 57
脊 57
醉@@ 57
隧@@ 57
颖 57
馆@@ 57
骗 57
鸭@@ 57
2015 56
乏@@ 56
乙@@ 56
堕@@ 56
壶 56
嫩 56
左 56
幸 56
庄@@ 56
态@@ 56
扩@@ 56
攻 56
斗@@ 56
映 56
显 56
杰 56
汗 56
污 56
泪@@ 56
浅 56
滋 56
漠@@ 56
甲 56
矮 56
箭@@ 56
虐 56
衬@@ 56
裤@@ 56
诀 56
雄 56
颤@@ 56
骂 56
42 55
au@@ 55
im@@ 55
kb 55
un@@ 55
乏 55
亩 55
吐@@ 55
屏 55
峻 55
徙 55
恐 55
悄@@ 55
敌 55
柔 55
汗@@ 55
浏@@ 55
浸@@ 55
湿 55
甜 55
痹 55
筋 55
答 55
纱 55
腕 55
蕉 55
诈 55
译 55
趟 55
躲 55
颁@@ 55
鼻@@ 55
48 54
dy 54
ipod 54
je@@ 54
led 54
michael 54
paul 54
sa 54
一小@@ 54
丸 54
勤@@ 54
叠@@ 54
哨@@ 54
堂@@ 54
墟 54
夷 54
少年 54
嵌@@ 54
循@@ 54
拾 54
摇 54
斜@@ 54
械@@ 54
泳@@ 54
澡 54
煤 54
爆 54
父@@ 54
籍 54
艾滋@@ 54
譬@@ 54
趣@@ 54
陷 54
雇 54
鳄@@ 54
am 53
amp 53
anderson 53
hu@@ 53
il 53
ine 53
my 53
no@@ 53
僚 53
县 53
发展@@ 53
宁 53
庆@@ 53
弦@@ 53
弯 53
戈 53
扣 53
扶@@ 53
授 53
掠@@ 53
摘@@ 53
李 53
泵 53
浅@@ 53
烦 53
牠 53
生涯 53
稣 53
签 53
绘 53
萧@@ 53
葬 53
详@@ 53
贸@@ 53
趾 53
迄@@ 53
阶 53
陋 53
顽@@ 53
鬼@@ 53
2020 52
bg 52
do@@ 52
fo@@ 52
man@@ 52
休 52
刹@@ 52
募 52
午 52
圣 52
妙@@ 52
巢@@ 52
庇@@ 52
愧 52
拉克 52
捷@@ 52
杆@@ 52
析@@ 52
榄@@ 52
浩@@ 52
涌 52
潜 52
烤 52
珊 52
磷 52
窄 52
纷 52
耗 52
蜣@@ 52
阐@@ 52
14@@ 51
2013 51
72 51
ar 51
cor@@ 51
ler 51
― 51
俯@@ 51
倍@@ 51
偿 51
呐 51
坟@@ 51
崩@@ 51
彻 51
挖 51
桨 51
棋 51
汽 51
畴 51
矩@@ 51
筛@@ 51
篮 51
缆 51
羽@@ 51
耶 51
肩 51
莫 51
葬@@ 51
衍 51
诞 51
踪@@ 51
隶@@ 51
+ 50
ad 50
and@@ 50
dan 50
ke@@ 50
va 50
今 50
兔@@ 50
剂@@ 50
哨 50
售 50
妓@@ 50
废 50
弃@@ 50
扫 50
插 50
撒 50
汤 50
渐@@ 50
瓜@@ 50
皿 50
肆@@ 50
腺癌 50
蕾 50
蜻@@ 50
贼 50
醒@@ 50
链@@ 50
锐 50
饱 50
鹅 50
龄 50
2030 49
34 49
38 49
dh 49
go@@ 49
ju@@ 49
ny 49
ta 49
勤 49
叹 49
喘 49
夹@@ 49
师@@ 49
帽 49
延 49
惊 49
扑@@ 49
扯 49
拔@@ 49
材@@ 49
淡 49
澳@@ 49
瓷@@ 49
眉@@ 49
砖@@ 49
硕@@ 49
肌 49
肌@@ 49
蓄@@ 49
虚 49
蜓 49
蟹 49
踪 49
逝@@ 49
邮 49
酷@@ 49
铅@@ 49
魔 49
31 48
bill 48
ff 48
pm 48
ps 48
ra 48
仇@@ 48
凑 48
劫 48
唐 48
均 48
夹 48
媒 48
寄 48
悯 48
扼@@ 48
挡@@ 48
挣 48
氧化@@ 48
涵 48
演讲@@ 48
炉 48
瘾@@ 48
碎@@ 48
窃@@ 48
筝 48
绳 48
腊@@ 48
舌@@ 48
芽 48
莓 48
蓬@@ 48
袋@@ 48
赠@@ 48
踩 48
隆@@ 48
颈@@ 48
ah 47
bf 47
q 47
wi@@ 47
亏 47
伟 47
佳@@ 47
侠 47
兼 47
剩@@ 47
咱@@ 47
唯@@ 47
妇@@ 47
嫉@@ 47
朽 47
桑 47
歧 47
泊@@ 47
淘@@ 47
滞 47
狩@@ 47
珠 47
睁@@ 47
祖 47
纺@@ 47
络 47
诡@@ 47
跃@@ 47
闷 47
闹@@ 47
雌 47
飘@@ 47
齿@@ 47
1999 46
55 46
and 46
ev@@ 46
ibm 46
ic@@ 46
jim 46
qu@@ 46
佐@@ 46
侄@@ 46
倡 46
健 46
咪 46
嘉@@ 46
夕@@ 46
奎@@ 46
帝 46
愈 46
慈 46
扮@@ 46
拐@@ 46
映@@ 46
昨@@ 46
桃 46
械 46
泊 46
涡@@ 46
熟 46
症@@ 46
绿 46
罚@@ 46
胚@@ 46
脂@@ 46
蕾@@ 46
虎@@ 46
述@@ 46
适 46
韧@@ 46
颇@@ 46
馈 46
96 45
by 45
ir@@ 45
ot@@ 45
richard 45
robert 45
st 45
卜 45
哮@@ 45
坦 45
寓@@ 45
惧@@ 45
戚 45
扬@@ 45
撇@@ 45
旨 45
晃 45
棍@@ 45
椎 45
浇@@ 45
浑@@ 45
漠 45
猿@@ 45
申 45
纤@@ 45
脖@@ 45
裙@@ 45
践@@ 45
郁@@ 45
锋 45
鸽@@ 45
16@@ 44
co 44
ki 44
仁 44
仙@@ 44
任何@@ 44
企@@ 44
凸@@ 44
卢 44
奉 44
宴 44
寂@@ 44
寺 44
帆@@ 44
庙 44
府@@ 44
悠@@ 44
抑 44
旦 44
消费@@ 44
灰 44
炼@@ 44
烛 44
熵 44
猪@@ 44
痕 44
糟@@ 44
聘@@ 44
膏 44
舟 44
萝@@ 44
董@@ 44
袖@@ 44
谊 44
辉@@ 44
鉴 44
雏@@ 44
韦 44
190@@ 43
br@@ 43
ia 43
my@@ 43
zi@@ 43
仔 43
兄 43
办公@@ 43
吐 43
哩 43
妨 43
嬉@@ 43
寨 43
己 43
廓 43
性恋 43
悉@@ 43
愚@@ 43
拳@@ 43
晶 43
残 43
毕 43
洒 43
漆@@ 43
甚 43
畜 43
疚 43
矩 43
禽@@ 43
稽 43
窃 43
胃 43
能性 43
芒 43
荧@@ 43
藻@@ 43
蝶 43
衡@@ 43
豪 43
贫民@@ 43
蹈@@ 43
郊 43
钻 43
革 43
.. 42
40@@ 42
crisp@@ 42
dv@@ 42
mu@@ 42
om@@ 42
pe 42
厂@@ 42
味@@ 42
啊@@ 42
噩@@ 42
囊@@ 42
够@@ 42
婪 42
孔@@ 42
庭 42
扇@@ 42
拒 42
挪@@ 42
援@@ 42
歉 42
浴 42
炎@@ 42
牢 42
狼@@ 42
猿 42
癫@@ 42
粘 42
缅@@ 42
聪@@ 42
腐 42
萄 42
葡@@ 42
虔@@ 42
誓 42
躁 42
辜 42
顺 42
bur@@ 41
dan@@ 41
ey 41
ff@@ 41
fi@@ 41
george 41
ir 41
ka 41
ker 41
lian 41
sar@@ 41
tom 41
ve 41
乃@@ 41
劫@@ 41
届 41
幢 41
怜@@ 41
惹 41
捐 41
援 41
杠@@ 41
栅@@ 41
棍 41
椰@@ 41
泌 41
焰 41
熊@@ 41
犬 41
甸 41
碱@@ 41
苯@@ 41
荣 41
萎@@ 41
谨 41
险 41
ale@@ 40
fe@@ 40
han 40
pp@@ 40
sch@@ 40
sha 40
sha@@ 40
steve 40
th 40
ts 40
促 40
农 40
刘@@ 40
吊@@ 40
垮 40
塘 40
姿@@ 40
巨 40
庞 40
弓 40
径@@ 40
掷 40
搅@@ 40
斑 40
於 40
朵@@ 40
梯@@ 40
溪@@ 40
漆 40
瀑@@ 40
熔@@ 40
牲@@ 40
番@@ 40
痢@@ 40
盔 40
确 40
笔记@@ 40
耀@@ 40
茨@@ 40
蠕@@ 40
赢@@ 40
钩 40
铸@@ 40
锅 40
阱 40
陪 40
驻@@ 40
骸 40
bert 39
em@@ 39
ger 39
pad 39
ster 39
than 39
wikipedia 39
丛 39
伽 39
佑 39
侮@@ 39
债 39
剪 39
吻@@ 39
噬 39
嚼 39
壳@@ 39
姓@@ 39
娃@@ 39
尊 39
投资@@ 39
拓 39
敲 39
检 39
煌 39
琐@@ 39
瘤 39
纪 39
绵@@ 39
肝 39
腾@@ 39
薯@@ 39
踢@@ 39
酯 39
钞@@ 39
障@@ 39
颈 39
驱 39
骇@@ 39
黄 39
鼻 39
bas@@ 38
berg 38
car 38
fa@@ 38
gh@@ 38
james 38
ko@@ 38
lt 38
min@@ 38
mon@@ 38
ok 38
peter 38
tr@@ 38
ven@@ 38
不多 38
丑 38
么@@ 38
各样 38
员@@ 38
坎@@ 38
坪 38
婷 38
嫁@@ 38
宿 38
履@@ 38
拨 38
珊瑚@@ 38
珍 38
畅 38
砰 38
祸@@ 38
竟 38
纤 38
绩@@ 38
缸 38
胎@@ 38
蜗 38
蜘@@ 38
讨 38
遣 38
郁 38
铜@@ 38
颜@@ 38
饶 38
00@@ 37
lu@@ 37
pa 37
par@@ 37
per@@ 37
rom@@ 37
ton 37
va@@ 37
war@@ 37
we@@ 37
削 37
剖 37
嗅@@ 37
娶 37
宗 37
愤@@ 37
抛 37
拆 37
拽 37
敦 37
暖 37
椎@@ 37
焚@@ 37
爪@@ 37
猛 37
琢@@ 37
祷@@ 37
竖@@ 37
筑 37
簧 37
胸 37
脏@@ 37
腔@@ 37
腰@@ 37
谴@@ 37
贿@@ 37
赎 37
踢 37
辍@@ 37
达尔@@ 37
铜 37
铭@@ 37
颇 37
驳 37
鸽 37
ct 36
eb@@ 36
jon@@ 36
lar@@ 36
med 36
mor@@ 36
so@@ 36
ve@@ 36
井@@ 36
华盛@@ 36
又@@ 36
吵 36
寿@@ 36
憎@@ 36
戮 36
扮 36
抢 36
抹 36
挑 36
挠 36
捍@@ 36
掀@@ 36
摒@@ 36
旱@@ 36
晕 36
柬@@ 36
柴 36
框@@ 36
植 36
楚 36
榜 36
汲@@ 36
沸@@ 36
泛 36
淀@@ 36
溉 36
皇 36
碟 36
磁 36
绎 36
罚 36
羞 36
联网 36
肖 36
肤@@ 36
膝 36
英 36
茫 36
融 36
蠢@@ 36
谢 36
邀 36
邻 36
锋@@ 36
香 36
驻 36
髋@@ 36
ba 35
ban@@ 35
cy@@ 35
fli@@ 35
ina 35
ku@@ 35
set@@ 35
ss 35
・ 35
兆@@ 35
凌 35
函@@ 35
勘@@ 35
吸 35
嘈@@ 35
坊 35
埔@@ 35
奈 35
奔 35
崇 35
帕 35
拼 35
掏@@ 35
枢@@ 35
栏@@ 35
槽 35
横 35
氛@@ 35
浆 35
济 35
渊 35
烘@@ 35
爸@@ 35
狸 35
獾 35
痫 35
皆@@ 35
碍@@ 35
粮@@ 35
缠@@ 35
肮@@ 35
肿@@ 35
胖 35
胞 35
虽@@ 35
螨 35
贤@@ 35
跌 35
酋@@ 35
酵@@ 35
霸@@ 35
don@@ 34
et 34
et@@ 34
han@@ 34
mat@@ 34
one 34
san 34
一切@@ 34
京@@ 34
仗 34
佩 34
侣 34
凉@@ 34
勉@@ 34
唐@@ 34
契 34
昭@@ 34
柜@@ 34
栽@@ 34
欠 34
殴@@ 34
泄 34
涨@@ 34
睁 34
磷@@ 34
耸@@ 34
臭 34
蜗@@ 34
诫 34
贬@@ 34
逃 34
钓@@ 34
铃@@ 34
阅@@ 34
韵@@ 34
项@@ 34
颂 34
@ 33
bri@@ 33
ja 33
net@@ 33
ph 33
re 33
sky@@ 33
wol@@ 33
仿 33
傲@@ 33
匈@@ 33
叉@@ 33
叛 33
呵 33
咒@@ 33
培 33
基础@@ 33
审 33
宫@@ 33
屠@@ 33
嵌 33
慕 33
扣@@ 33
扰@@ 33
枝@@ 33
桩 33
梅 33
犸 33
珀 33
碍 33
碧@@ 33
稻@@ 33
符@@ 33
纯 33
绵 33
缠 33
耐 33
腿@@ 33
自行@@ 33
芝@@ 33
蚊 33
螈 33
衔 33
览 33
账 33
馅@@ 33
= 32
cha@@ 32
col@@ 32
den@@ 32
mary 32
mer 32
pi@@ 32
san@@ 32
sc@@ 32
ter@@ 32
thomas 32
不得@@ 32
依 32
僧@@ 32
冈@@ 32
凉 32
卑 32
喊@@ 32
囚@@ 32
怒@@ 32
悟@@ 32
抹@@ 32
搏@@ 32
斐@@ 32
晓@@ 32
棉 32
毫 32
氛 32
渣 32
炫@@ 32
烯 32
眨@@ 32
祭@@ 32
聘 32
聪 32
脆 32
蛎 32
蝴@@ 32
贿 32
赚@@ 32
跤 32
钢 32
闯@@ 32
鞭@@ 32
韧 32
驯@@ 32
齿 32
be 31
fra@@ 31
ger@@ 31
global 31
ham 31
ice 31
ne 31
令@@ 31
侈 31
偿@@ 31
凌@@ 31
刮@@ 31
剑 31
匆@@ 31
匮@@ 31
哲@@ 31
喉@@ 31
囚 31
坝 31
堡@@ 31
墨 31
复杂@@ 31
夏 31
娱@@ 31
寒 31
恻@@ 31
惹@@ 31
捏 31
捡@@ 31
晒@@ 31
栓 31
氨@@ 31
泻 31
涅@@ 31
渺@@ 31
溺@@ 31
牧 31
物理@@ 31
痹@@ 31
皱@@ 31
盆 31
盆@@ 31
筑@@ 31
绩 31
腺@@ 31
衰 31
袜@@ 31
貌@@ 31
赂 31
蹦@@ 31
陵@@ 31
雀 31
驭 31
andrew 30
ce 30
for@@ 30
mal@@ 30
mil@@ 30
nan@@ 30
op@@ 30
ore 30
se 30
she@@ 30
ss@@ 30
te@@ 30
℃ 30
介 30
伸 30
俗@@ 30
偏 30
兵@@ 30
垄@@ 30
妒 30
巷 30
庞@@ 30
康 30
庸@@ 30
弈 30
拦@@ 30
持续@@ 30
旺@@ 30
柄 30
梭@@ 30
死亡@@ 30
殊@@ 30
汰 30
沾@@ 30
渴@@ 30
炒 30
炮@@ 30
玫@@ 30
瘦 30
砂 30
碌 30
笨 30
艳 30
芥@@ 30
藉@@ 30
蝾@@ 30
豫 30
赐 30
迈 30
追 30
逻@@ 30
顷 30
饵 30
鸣 30
bre@@ 29
co2 29
cr@@ 29
der@@ 29
ino 29
ks 29
nic@@ 29
ry@@ 29
ser@@ 29
sk@@ 29
sm 29
story@@ 29
ton@@ 29
wil@@ 29
伍 29
凯 29
咒 29
哀@@ 29
妨@@ 29
宰@@ 29
弧@@ 29
後 29
懈 29
拷@@ 29
撑@@ 29
敦@@ 29
曝@@ 29
槛 29
沟@@ 29
烁 29
烂@@ 29
瞧@@ 29
秀@@ 29
秃@@ 29
粒@@ 29
缪@@ 29
舌 29
荡@@ 29
薯 29
谓 29
踏 29
辉 29
辑@@ 29
辟 29
逛 29
雾@@ 29
霍 29
黛@@ 29
｣ 29
all@@ 28
hel@@ 28
ins 28
ll 28
mo 28
mri 28
ou@@ 28
pra@@ 28
wal@@ 28
yo@@ 28
冯 28
则@@ 28
匹 28
哀 28
唇 28
姨 28
尿 28
峡 28
巫@@ 28
己@@ 28
恤 28
恭@@ 28
慰@@ 28
懒@@ 28
担 28
挚@@ 28
昂@@ 28
柴@@ 28
棚@@ 28
榈@@ 28
气候@@ 28
氦 28
沥@@ 28
泼 28
淋 28
淑 28
牡@@ 28
犀@@ 28
猴@@ 28
痒 28
砂@@ 28
礁 28
祈@@ 28
笼 28
箭 28
簿 28
翠@@ 28
臂@@ 28
藤@@ 28
蜜@@ 28
诸 28
谁@@ 28
谣@@ 28
都是 28
钙 28
钦@@ 28
闪 28
靴 28
骼@@ 28
魁@@ 28
｢ 28
# 27
_ 27
bb@@ 27
ben@@ 27
bi 27
dr@@ 27
gen@@ 27
gre@@ 27
her@@ 27
ica 27
ly@@ 27
pan@@ 27
shi@@ 27
sp@@ 27
the@@ 27
tian 27
串@@ 27
劣@@ 27
吵@@ 27
嘘 27
坍@@ 27
域@@ 27
妆 27
孢@@ 27
实际@@ 27
寺@@ 27
年轻@@ 27
弓@@ 27
拒@@ 27
晃@@ 27
晋@@ 27
朋@@ 27
杏@@ 27
橘@@ 27
欠@@ 27
毋@@ 27
泰 27
淆 27
溢 27
琳@@ 27
生素 27
痴 27
睾@@ 27
磅@@ 27
祝 27
而易@@ 27
茜 27
葱 27
诈@@ 27
贯 27
逸 27
邪@@ 27
鄂 27
附 27
陨@@ 27
鸣@@ 27
ans@@ 26
bor@@ 26
dani@@ 26
ie 26
jac@@ 26
mt 26
ney 26
nor@@ 26
pr@@ 26
sal@@ 26
wa@@ 26
well 26
予@@ 26
亥@@ 26
仪@@ 26
优 26
凑@@ 26
卸@@ 26
厉 26
呐@@ 26
咸@@ 26
喘@@ 26
妄@@ 26
孵@@ 26
幼 26
恕 26
意大@@ 26
戒 26
抄@@ 26
捡 26
掘@@ 26
掠 26
撼@@ 26
斧 26
斯林 26
梳@@ 26
涡 26
渐 26
炮 26
煮 26
熬 26
猴 26
瓣@@ 26
粹 26
紊@@ 26
绒@@ 26
腰 26
茄@@ 26
虹 26
询@@ 26
财 26
贾 26
轿@@ 26
邦@@ 26
锤@@ 26
阁@@ 26
陡@@ 26
鹅@@ 26
～ 26
ali@@ 25
ans 25
ap@@ 25
app 25
ari@@ 25
brun@@ 25
cra@@ 25
dre@@ 25
ds 25
id 25
kar@@ 25
mac@@ 25
me 25
nick 25
pal@@ 25
pre@@ 25
ul@@ 25
wat@@ 25
ya 25
丙@@ 25
乞@@ 25
亦@@ 25
倾 25
僻 25
册@@ 25
功 25
叭 25
咀@@ 25
咙 25
哺乳@@ 25
坡@@ 25
垫@@ 25
垮@@ 25
夷@@ 25
姆斯 25
寡@@ 25
尤 25
币@@ 25
帧 25
府 25
心脏@@ 25
怎么@@ 25
恼@@ 25
悖@@ 25
截 25
拳 25
挽@@ 25
搐 25
摊@@ 25
数字@@ 25
旭 25
杖 25
某种@@ 25
殆@@ 25
沦@@ 25
涸 25
溪 25
滞@@ 25
漩@@ 25
澄@@ 25
烩 25
燕@@ 25
狠 25
狠@@ 25
甸@@ 25
疤 25
监 25
盼 25
砍 25
粪 25
糊 25
绅@@ 25
绷@@ 25
肘 25
臣 25
芒@@ 25
茫@@ 25
赋@@ 25
辙 25
铀 25
锐@@ 25
锯 25
霉 25
饿@@ 25
驰 25
鲑@@ 25
dd@@ 24
ero@@ 24
fi 24
fri@@ 24
ha 24
ims 24
ing 24
john@@ 24
mit@@ 24
mp@@ 24
ot 24
stein 24
tt 24
ty 24
van 24
ver 24
乌 24
劝@@ 24
匪@@ 24
呵@@ 24
唔 24
奠@@ 24
如说 24
姿 24
尝@@ 24
徊 24
徘@@ 24
恍@@ 24
慧@@ 24
拾@@ 24
捆@@ 24
擅@@ 24
操 24
昧 24
晒 24
栩@@ 24
棚 24
歇 24
毅@@ 24
湾@@ 24
潘@@ 24
硅 24
窍 24
笛@@ 24
职业@@ 24
肿 24
萌@@ 24
薇@@ 24
虽 24
螃@@ 24
诵 24
谚@@ 24
贩 24
贮@@ 24
距@@ 24
酵 24
锡@@ 24
陀@@ 24
隘 24
颅 24
麽 24
ak 23
don 23
ex@@ 23
id@@ 23
im 23
jen@@ 23
martin 23
pat@@ 23
pu@@ 23
q@@ 23
ray 23
ron 23
star@@ 23
tica 23
ur 23
丘@@ 23
亡@@ 23
们@@ 23
倘@@ 23
励@@ 23
圭 23
基金@@ 23
妈@@ 23
庭@@ 23
恳@@ 23
惕 23
惫 23
扉 23
扯@@ 23
持续性 23
搏 23
昆@@ 23
棋@@ 23
椭@@ 23
橇 23
沾 23
熄@@ 23
瑜@@ 23
瘟@@ 23
睹 23
瞒 23
稚 23
纬@@ 23
罹@@ 23
翰 23
胆 23
膀@@ 23
舰 23
艘@@ 23
苛@@ 23
蚪 23
蝌@@ 23
螳@@ 23
讽 23
踩@@ 23
蹲 23
辖 23
辰 23
银 23
阻 23
韩@@ 23
颅@@ 23
］ 23
bra@@ 22
bs 22
che@@ 22
chi@@ 22
ci@@ 22
ers 22
gr@@ 22
hi 22
ide@@ 22
jam@@ 22
jan@@ 22
juli@@ 22
ld 22
lea@@ 22
lee 22
men 22
nat@@ 22
rab@@ 22
shar@@ 22
shu@@ 22
smith 22
sti@@ 22
william 22
® 22
乳 22
亟@@ 22
仇 22
伊斯@@ 22
剔 22
厄 22
咯 22
咽 22
哺@@ 22
噪@@ 22
姻@@ 22
婆@@ 22
媒@@ 22
巴马 22
帘 22
庸 22
徽@@ 22
拙 22
斧@@ 22
斩@@ 22
日常@@ 22
时报 22
枕@@ 22
梵@@ 22
洛杉@@ 22
灌 22
炭@@ 22
瑕@@ 22
瑰 22
瓣 22
疵 22
皱 22
瞰 22
矫@@ 22
矶@@ 22
突 22
竟@@ 22
绞@@ 22
绪@@ 22
肢@@ 22
肪@@ 22
藉 22
袍 22
贺@@ 22
辐@@ 22
辣@@ 22
递 22
郡 22
钉@@ 22
铃 22
铲@@ 22
锂 22
镖 22
雀@@ 22
霜 22
颠 22
鹦@@ 22
alex@@ 21
are@@ 21
ary 21
fer@@ 21
iz@@ 21
kel@@ 21
kev@@ 21
lan@@ 21
mon 21
mul@@ 21
ok@@ 21
ory 21
os 21
ram 21
scott 21
sudd@@ 21
tics 21
tru@@ 21
wh@@ 21
women 21
▪ 21
亏@@ 21
兔 21
凤@@ 21
凿 21
剔@@ 21
劲@@ 21
厢 21
叮@@ 21
哇@@ 21
哲 21
嗒 21
嫌@@ 21
尸 21
尼日@@ 21
庆 21
忱 21
悖 21
憧@@ 21
抽 21
斐 21
晰@@ 21
杜 21
柏 21
棱@@ 21
氮@@ 21
汐 21
济@@ 21
涅 21
涩 21
淌 21
渲@@ 21
激 21
瀚 21
爪 21
狡@@ 21
独 21
狮 21
疟@@ 21
疹 21
癖 21
眠@@ 21
瞬@@ 21
禧 21
窥@@ 21
翔@@ 21
肃@@ 21
腥 21
舅@@ 21
萦@@ 21
蝙@@ 21
蝠@@ 21
详 21
诱 21
赏@@ 21
跋@@ 21
迅@@ 21
迥@@ 21
逆 21
郑@@ 21
钩@@ 21
钮 21
锢 21
雕 21
须@@ 21
颚 21
饰@@ 21
魂@@ 21
鼬 21
［ 21
air@@ 20
ams 20
ant@@ 20
bla@@ 20
cal@@ 20
ce@@ 20
cy 20
ent@@ 20
ere@@ 20
eric 20
free 20
gan 20
gl@@ 20
hat@@ 20
ii 20
ima@@ 20
ken@@ 20
land 20
lau@@ 20
of 20
ran@@ 20
rit@@ 20
zero 20
仓 20
冗@@ 20
况@@ 20
喧@@ 20
喷 20
嗡@@ 20
婴 20
婴@@ 20
宴@@ 20
寂 20
御@@ 20
慌@@ 20
慕@@ 20
扁@@ 20
扪@@ 20
捣@@ 20
摘 20
晤@@ 20
枢 20
柠@@ 20
橱@@ 20
氯@@ 20
汪@@ 20
沛 20
泌@@ 20
添 20
烫 20
爵 20
瓷 20
皂@@ 20
盎@@ 20
碾@@ 20
稼 20
窍@@ 20
窥 20
绒 20
绣 20
胱 20
膜@@ 20
舅 20
芳@@ 20
菩@@ 20
褶@@ 20
谐 20
贺 20
赴 20
逗@@ 20
逾@@ 20
郎 20
铐 20
锦@@ 20
阿富@@ 20
霸 20
颞@@ 20
髦 20
ach@@ 19
bun@@ 19
char@@ 19
die 19
ea@@ 19
ec@@ 19
ga 19
gal@@ 19
gar@@ 19
gor@@ 19
her 19
ine@@ 19
ith 19
ken 19
net 19
pen@@ 19
pol@@ 19
ris@@ 19
scratch 19
shir@@ 19
uni@@ 19
ya@@ 19
乍@@ 19
冈 19
前所未@@ 19
勾 19
咳@@ 19
哎@@ 19
坑@@ 19
奴 19
姨@@ 19
娩 19
寸 19
屑 19
悼@@ 19
憬 19
扑 19
携 19
摊 19
撑 19
施 19
暑@@ 19
柿 19
椒 19
沐@@ 19
溢@@ 19
滔@@ 19
珀@@ 19
甩 19
祉 19
祥 19
稠 19
筋@@ 19
绞 19
翅 19
脾@@ 19
腻 19
芝加@@ 19
茅@@ 19
藩@@ 19
蜷@@ 19
衔@@ 19
裸 19
训 19
贸 19
赁 19
赐@@ 19
轶@@ 19
辜@@ 19
邓@@ 19
鄙 19
酗@@ 19
酿 19
锡 19
颂@@ 19
魂 19
鸦@@ 19
鸭 19
﹖ 19
／ 19
anda 18
apple 18
are 18
bru@@ 18
charles 18
cu@@ 18
dar@@ 18
den 18
earth 18
frank 18
ig@@ 18
into 18
ling 18
mark 18
mou@@ 18
ms 18
ner 18
pix@@ 18
she 18
speech 18
ston 18
ten@@ 18
tt@@ 18
ty@@ 18
vo@@ 18
〉 18
上千 18
专 18
伪 18
侍@@ 18
倚 18
兜@@ 18
全球@@ 18
刃@@ 18
卜@@ 18
参与@@ 18
吨@@ 18
咬@@ 18
嗓@@ 18
嘻@@ 18
嚏 18
垢 18
宅@@ 18
屡@@ 18
岂 18
岌@@ 18
岭 18
庄 18
恨@@ 18
悉 18
惚 18
惩@@ 18
抒@@ 18
抚 18
拱@@ 18
捆 18
捏@@ 18
捧 18
摔 18
旷 18
概 18
滥 18
滨 18
灿@@ 18
猖@@ 18
猾 18
甩@@ 18
痊@@ 18
瘦@@ 18
盈 18
瞎@@ 18
瞻@@ 18
矛 18
矮@@ 18
稿@@ 18
筹 18
继 18
肴 18
胀 18
腋@@ 18
舆@@ 18
舵 18
芙@@ 18
葵 18
蛮@@ 18
蜥@@ 18
蠢 18
袤 18
诅@@ 18
贫 18
逻 18
酝@@ 18
酿@@ 18
铅 18
铝 18
靶@@ 18
韵 18
飘 18
驾 18
鱿@@ 18
鹿@@ 18
arth@@ 17
ben 17
bon@@ 17
cer@@ 17
cur@@ 17
ent 17
eri@@ 17
ford 17
gro@@ 17
hen@@ 17
lev@@ 17
li 17
mb 17
sin@@ 17
sta@@ 17
ther@@ 17
tor@@ 17
tre@@ 17
um 17
windows 17
wit@@ 17
〈 17
业家 17
亨 17
价值@@ 17
來 17
侯@@ 17
凰 17
卿 17
吞 17
哎 17
嗽 17
嚷 17
坎 17
坠 17
填 17
奸@@ 17
妆@@ 17
寸@@ 17
屁 17
屎 17
峭 17
巅@@ 17
川 17
循 17
怨 17
恤@@ 17
悚@@ 17
愤 17
扁 17
扭 17
措@@ 17
摧@@ 17
昏 17
晕@@ 17
曙@@ 17
殊 17
浓 17
淇@@ 17
溜 17
滨@@ 17
炒@@ 17
焕@@ 17
煎@@ 17
煽@@ 17
畜@@ 17
疆@@ 17
督@@ 17
睿@@ 17
穹@@ 17
篱@@ 17
绍@@ 17
肋@@ 17
臀@@ 17
苔@@ 17
苗@@ 17
茂@@ 17
茄 17
蛾 17
谛 17
谬@@ 17
资本@@ 17
赔@@ 17
趾@@ 17
辱@@ 17
逊@@ 17
遏@@ 17
酮 17
铝@@ 17
锯@@ 17
阀 17
页@@ 17
饮 17
黛 17
１ 17
acu@@ 16
ars 16
bron@@ 16
edu@@ 16
ell 16
even 16
for 16
gab@@ 16
haw@@ 16
ick 16
jer@@ 16
lie 16
lo 16
mer@@ 16
pink 16
por@@ 16
sk 16
stac@@ 16
stu@@ 16
world@@ 16
you 16
zz@@ 16
与此@@ 16
佼@@ 16
侏@@ 16
加利@@ 16
受害@@ 16
吊 16
吟 16
咎@@ 16
啤@@ 16
嗜@@ 16
夭@@ 16
奄@@ 16
嫁 16
孝@@ 16
宇@@ 16
岗 16
帅 16
帆 16
怨@@ 16
悄 16
悠 16
慎@@ 16
挚 16
挫 16
捉 16
搁@@ 16
晴@@ 16
杨 16
楚@@ 16
榨@@ 16
欢 16
毯@@ 16
汁@@ 16
测器 16
浦 16
润 16
淀 16
渴 16
獗 16
瘫 16
瞎 16
瞩@@ 16
砌 16
硝@@ 16
稣@@ 16
究@@ 16
窒@@ 16
糕@@ 16
绸 16
缀 16
翩@@ 16
腓@@ 16
茱@@ 16
荫 16
褐@@ 16
趁@@ 16
违 16
迭@@ 16
迸@@ 16
遣@@ 16
铭 16
锥@@ 16
颤 16
鳄 16
12@@ 15
aids 15
ang@@ 15
ani@@ 15
ant 15
art 15
bro@@ 15
by@@ 15
cla@@ 15
cro@@ 15
eg@@ 15
fellow 15
ge 15
gh 15
goo@@ 15
jack 15
kic@@ 15
king 15
lab 15
los 15
ls 15
men@@ 15
mur@@ 15
ob@@ 15
off 15
ol 15
ox@@ 15
point 15
rac@@ 15
rose 15
shop 15
sky 15
sli@@ 15
so 15
tri@@ 15
ves 15
ward 15
we 15
win@@ 15
ws 15
™ 15
⋯ 15
丶 15
佬 15
俾@@ 15
僚@@ 15
兑@@ 15
冬 15
凹@@ 15
剃@@ 15
匿@@ 15
卸 15
呕@@ 15
哔 15
啮@@ 15
嘀@@ 15
嘟@@ 15
囱 15
塌@@ 15
夸 15
媲@@ 15
對 15
崽 15
廷@@ 15
弈@@ 15
彭@@ 15
忧 15
怯@@ 15
悔@@ 15
悦@@ 15
愧@@ 15
慨@@ 15
懒 15
懦@@ 15
拢 15
拥 15
搁 15
搜 15
斋@@ 15
无论@@ 15
旷@@ 15
昔@@ 15
是说 15
朴@@ 15
杉@@ 15
杨@@ 15
柯 15
柳@@ 15
棠 15
歪@@ 15
汹@@ 15
浦@@ 15
渍 15
澳大@@ 15
灼@@ 15
炽@@ 15
烹@@ 15
玉 15
瘠 15
睐 15
硫 15
祸 15
禽 15
穆 15
穗 15
窝@@ 15
笆 15
笛 15
缔@@ 15
缭@@ 15
羚@@ 15
耕 15
聋 15
腕@@ 15
舱@@ 15
苗 15
茸 15
茸@@ 15
莲@@ 15
葛 15
藤 15
虾@@ 15
蚕@@ 15
蜡 15
蜴 15
褪@@ 15
诀@@ 15
蹄 15
迦 15
逗 15
逢 15
逾 15
锈@@ 15
镁 15
驼@@ 15
骚 15
鬣@@ 15
鳗@@ 15
$ 14
af@@ 14
ald 14
ano 14
app@@ 14
av@@ 14
bab@@ 14
bal@@ 14
bit 14
can@@ 14
ep@@ 14
far@@ 14
fre@@ 14
fur@@ 14
green 14
ill 14
ill@@ 14
ing@@ 14
key 14
met 14
ones 14
pri@@ 14
ran 14
ron@@ 14
sen 14
south 14
tur@@ 14
tw@@ 14
yo 14
á 14
é 14
亚马@@ 14
亭 14
亭@@ 14
仆@@ 14
佣@@ 14
侈@@ 14
們 14
刃 14
勇 14
匀 14
君 14
吼 14
呜@@ 14
咐 14
哄 14
嗅 14
土耳@@ 14
姑 14
姜@@ 14
娓@@ 14
川@@ 14
帖 14
忽 14
悍 14
惶@@ 14
扳@@ 14
抄 14
抨@@ 14
挪 14
捞@@ 14
查德 14
棺@@ 14
椒@@ 14
歉@@ 14
歧@@ 14
毗@@ 14
沌 14
溅 14
煮@@ 14
猝@@ 14
玄@@ 14
琐 14
睫 14
睬 14
矢@@ 14
秒@@ 14
篝@@ 14
篡@@ 14
粗 14
維 14
纂 14
缴@@ 14
羡@@ 14
肆 14
肤 14
腌@@ 14
膛 14
荼 14
菠@@ 14
董 14
蔑 14
蛇@@ 14
蛛 14
蟀 14
蟋@@ 14
衅 14
趋 14
躯 14
辣 14
遨@@ 14
闷@@ 14
震 14
颊 14
颖@@ 14
飙@@ 14
魄 14
鲸@@ 14
鳕@@ 14
鹉 14
鼎@@ 14
* 13
ace 13
ale 13
ate@@ 13
ay@@ 13
cke@@ 13
cli@@ 13
dou@@ 13
dy@@ 13
ei@@ 13
emi@@ 13
fran@@ 13
gri@@ 13
gue 13
hal@@ 13
holo@@ 13
hy@@ 13
ian 13
inst@@ 13
inter@@ 13
ish 13
jor@@ 13
lens 13
les 13
mail 13
mathema@@ 13
mm 13
our 13
our@@ 13
power@@ 13
pper 13
sey 13
sop@@ 13
sun@@ 13
vel 13
white 13
yl@@ 13
zy 13
仰 13
伺@@ 13
侯 13
倚@@ 13
倭 13
勋@@ 13
匿 13
厌 13
各种@@ 13
噗@@ 13
嚣 13
妥 13
姬 13
屈 13
崎@@ 13
巩@@ 13
弊@@ 13
彷@@ 13
忡 13
忡@@ 13
惑@@ 13
惯 13
懊@@ 13
戚@@ 13
戳 13
抬 13
拐 13
拟 13
掺@@ 13
摞 13
旦@@ 13
旺 13
桶@@ 13
洒@@ 13
洽 13
涤@@ 13
湛 13
炉@@ 13
琥@@ 13
琼 13
畸@@ 13
疮 13
眩@@ 13
瞥 13
瞬 13
礁@@ 13
秉@@ 13
秋 13
穴@@ 13
窜 13
竖 13
箴@@ 13
粥 13
绚@@ 13
翱@@ 13
耍@@ 13
肾 13
舰@@ 13
茁@@ 13
薇 13
薛@@ 13
藓 13
蚱@@ 13
蜢 13
誉@@ 13
诙@@ 13
诞@@ 13
贡@@ 13
這@@ 13
遭@@ 13
钛 13
镶@@ 13
阂 13
陛@@ 13
饶@@ 13
ak@@ 12
box 12
changing 12
cl@@ 12
con@@ 12
des 12
dia 12
din@@ 12
gra@@ 12
had 12
lin 12
new 12
od@@ 12
oth 12
photo@@ 12
pl@@ 12
pro@@ 12
red@@ 12
rhe@@ 12
roo@@ 12
stan@@ 12
strong 12
sug@@ 12
tat@@ 12
that 12
tom@@ 12
val 12
vil@@ 12
wan@@ 12
word 12
za 12
¼ 12
丰 12
伞@@ 12
侥@@ 12
俘@@ 12
俚@@ 12
傲 12
凿@@ 12
劝 12
加拿@@ 12
匀@@ 12
匪 12
卓 12
印机 12
厕@@ 12
县@@ 12
叼 12
呻@@ 12
咻 12
哼 12
嘟 12
圳 12
壤@@ 12
妻@@ 12
姚@@ 12
媛 12
寐@@ 12
岔@@ 12
岳@@ 12
峭@@ 12
帅@@ 12
役@@ 12
徳 12
忆 12
恳 12
您@@ 12
懂@@ 12
所未@@ 12
拌 12
揣 12
攒 12
昵@@ 12
晰 12
机器@@ 12
楷@@ 12
榄 12
槟 12
檬@@ 12
毙 12
江@@ 12
洪 12
浊 12
涕 12
润@@ 12
渠 12
溃@@ 12
潘 12
烙@@ 12
熬@@ 12
狐@@ 12
疏 12
盏@@ 12
盒@@ 12
盼@@ 12
盾 12
睦 12
矛@@ 12
祀 12
祥@@ 12
禅 12
稠@@ 12
笋 12
簇 12
纲 12
绊@@ 12
罩@@ 12
置信 12
胁@@ 12
芙 12
芯 12
蔑@@ 12
蔓@@ 12
蚜@@ 12
蛆 12
袭@@ 12
要性 12
觅 12
誓@@ 12
讳 12
谍 12
贱@@ 12
趁 12
躁@@ 12
迦@@ 12
酱@@ 12
钝 12
陈 12
陶 12
雯 12
靡 12
鞍@@ 12
驰@@ 12
驳@@ 12
驴 12
骤@@ 12
骰@@ 12
麼 12
黯@@ 12
０ 12
ach 11
ash 11
bell 11
bin@@ 11
blo@@ 11
cat 11
chri@@ 11
com@@ 11
cop@@ 11
data 11
del@@ 11
dol@@ 11
dri@@ 11
ens 11
fer 11
gel 11
gla@@ 11
gol@@ 11
gos 11
ich 11
inte@@ 11
land@@ 11
lou@@ 11
low 11
manu@@ 11
ns 11
old 11
phili@@ 11
pur@@ 11
que@@ 11
ren 11
ri 11
rot@@ 11
sla@@ 11
sm@@ 11
stem 11
ten 11
ti 11
tor 11
tree 11
tv 11
um@@ 11
up 11
want 11
was 11
way 11
willi@@ 11
© 11
乖 11
享 11
侃 11
凶 11
刮 11
剥 11
努 11
卤@@ 11
卦 11
厨 11
叨 11
叮 11
吼@@ 11
呜 11
咳 11
哑@@ 11
唇@@ 11
唧@@ 11
唾@@ 11
嘱 11
噜 11
垦 11
堤 11
堤@@ 11
奧 11
她@@ 11
媚 11
嫌 11
宇 11
宛@@ 11
尉 11
巷@@ 11
帖@@ 11
幌@@ 11
忌@@ 11
惰 11
惰@@ 11
慧 11
憋@@ 11
扛@@ 11
抖@@ 11
掩 11
揣@@ 11
揭 11
撮 11
攫@@ 11
斥@@ 11
昆 11
昼@@ 11
晨@@ 11
朱 11
杠 11
欣 11
沒 11
浇 11
漂 11
潦@@ 11
澜 11
烛@@ 11
犬@@ 11
琪 11
甄@@ 11
痰 11
瘤@@ 11
瞠@@ 11
瞪 11
窘@@ 11
竹 11
缆@@ 11
缕 11
耸 11
腹 11
舔 11
芜 11
芽@@ 11
苟@@ 11
莽 11
菊 11
蛞@@ 11
蜒 11
蜕@@ 11
蜿@@ 11
蝎@@ 11
蝓 11
裙 11
诧@@ 11
诽@@ 11
谤 11
贱 11
赎@@ 11
踝 11
躺@@ 11
辽@@ 11
迂@@ 11
遥 11
酌 11
钞 11
锅@@ 11
镭@@ 11
闸@@ 11
阁 11
阳 11
隐 11
靴@@ 11
鲤@@ 11
鳃 11
鹰@@ 11
200@@ 10
ack@@ 10
all 10
ally 10
ander 10
ann@@ 10
any 10
ard 10
arre@@ 10
bel 10
black@@ 10
bol@@ 10
bot@@ 10
brown 10
cri@@ 10
dor@@ 10
dp 10
ere 10
fr@@ 10
fu@@ 10
ise 10
kin@@ 10
len 10
liz@@ 10
lot@@ 10
nel@@ 10
nu@@ 10
obama 10
off@@ 10
oly@@ 10
ori@@ 10
ple@@ 10
project 10
que 10
row 10
ssi@@ 10
str@@ 10
tab@@ 10
tan@@ 10
ue 10
ut@@ 10
val@@ 10
van@@ 10
via 10
water 10
west 10
will 10
world 10
ze@@ 10
β 10
∙ 10
仙 10
伎@@ 10
俘 10
匆 10
呎 10
呕 10
唉 10
啄@@ 10
啥@@ 10
喉 10
嗝 10
嘻 10
噬@@ 10
垂 10
士们 10
妖@@ 10
委 10
娘@@ 10
嫩@@ 10
寞 10
屉 10
届@@ 10
怕@@ 10
怯 10
恙 10
悬 10
惭@@ 10
慑 10
成千上@@ 10
拌@@ 10
拱 10
揍 10
揪@@ 10
搅 10
攸@@ 10
晦@@ 10
晾@@ 10
榈 10
橱 10
檀@@ 10
檐@@ 10
殿@@ 10
沧@@ 10
泉@@ 10
涟@@ 10
渥@@ 10
湃 10
漪 10
澈 10
澎@@ 10
炫 10
焊@@ 10
熏@@ 10
熙@@ 10
狙@@ 10
疆 10
疼@@ 10
相当@@ 10
眉 10
眷@@ 10
睫@@ 10
瞌@@ 10
磺 10
禅@@ 10
稽@@ 10
筷@@ 10
籽 10
粹@@ 10
糙@@ 10
纬 10
纲@@ 10
绸@@ 10
绽@@ 10
署@@ 10
羚 10
羽 10
肇@@ 10
艳@@ 10
芦 10
茉@@ 10
葫@@ 10
蚀@@ 10
蛙@@ 10
诵@@ 10
豚 10
贻@@ 10
赝@@ 10
赦 10
跪@@ 10
蹩@@ 10
轰 10
辖@@ 10
酋 10
钾 10
铸 10
锈 10
阀@@ 10
阈@@ 10
阔@@ 10
馨 10
鸥 10
黎 10
龟@@ 10
adi@@ 9
ami 9
aw@@ 9
chan@@ 9
city 9
ek 9
eu@@ 9
field 9
gn@@ 9
gon@@ 9
grand 9
gs 9
hol@@ 9
human@@ 9
iti 9
lim@@ 9
map 9
matic 9
may@@ 9
mobile 9
mom@@ 9
mp 9
mun@@ 9
new@@ 9
night 9
ola 9
ome@@ 9
page 9
pla@@ 9
scho@@ 9
sia 9
sig@@ 9
son@@ 9
sou@@ 9
space 9
stop@@ 9
syl@@ 9
tal@@ 9
tan 9
tar@@ 9
tes@@ 9
top@@ 9
vel@@ 9
vin@@ 9
yeah 9
young 9
ys 9
× 9
ç 9
ω 9
『 9
』 9
乃 9
乖@@ 9
乙 9
傀@@ 9
傍@@ 9
儒@@ 9
儡 9
函 9
刽@@ 9
勺@@ 9
匣@@ 9
卒 9
吩@@ 9
吱@@ 9
咕 9
咚 9
咚@@ 9
唠@@ 9
啪 9
喙 9
喻@@ 9
嘲 9
嘶@@ 9
妳 9
婉 9
孩 9
岖 9
峙 9
崩 9
巫 9
巾@@ 9
庙@@ 9
弛 9
彭 9
忠 9
怡 9
惜@@ 9
愁 9
扶 9
押@@ 9
拧@@ 9
括@@ 9
拭 9
挛 9
捅 9
捧@@ 9
揉@@ 9
描 9
斓 9
旬 9
星人 9
曳 9
朴 9
枚@@ 9
枯 9
栗 9
桅@@ 9
棱 9
椅@@ 9
榴@@ 9
殷@@ 9
泼@@ 9
溶 9
潢 9
灶 9
灶@@ 9
烁@@ 9
牟@@ 9
牵 9
珊@@ 9
疤@@ 9
疽 9
痉@@ 9
痒@@ 9
痣 9
盏 9
眨 9
碗@@ 9
秃 9
筏@@ 9
篷@@ 9
粮 9
纂@@ 9
绦@@ 9
耽@@ 9
脆@@ 9
苯 9
茧 9
萃 9
萎 9
萝 9
蒲@@ 9
蔓 9
蛋白@@ 9
螨@@ 9
裹@@ 9
讪 9
谐@@ 9
谔 9
谧 9
贞 9
赘@@ 9
趴@@ 9
跪 9
跷@@ 9
蹈 9
蹲@@ 9
遏 9
鄙@@ 9
钍 9
钳@@ 9
铛 9
锤 9
阉@@ 9
陌生@@ 9
隼 9
霆 9
骄@@ 9
魇 9
ab 8
ada 8
age 8
any@@ 8
ath 8
att@@ 8
back 8
barri@@ 8
bel@@ 8
bil@@ 8
brand 8
cats 8
cel@@ 8
chr@@ 8
cin@@ 8
clar@@ 8
coo@@ 8
cou@@ 8
dies 8
dra@@ 8
dun@@ 8
ele@@ 8
eling 8
ely 8
ence 8
fl@@ 8
full 8
gan@@ 8
gene 8
geor@@ 8
hall 8
ham@@ 8
he 8
him 8
hot@@ 8
ic 8
ines 8
june 8
kit@@ 8
ky 8
law@@ 8
let@@ 8
limb 8
lit@@ 8
little 8
mad 8
mark@@ 8
microsoft 8
more 8
nel 8
prot@@ 8
ques 8
red 8
ross 8
sam@@ 8
sat 8
sel@@ 8
sho@@ 8
som@@ 8
sty 8
swa@@ 8
talk 8
tar 8
tech 8
ther 8
thy 8
tube 8
vit@@ 8
wel@@ 8
wis@@ 8
wood 8
½ 8
且@@ 8
丧 8
二氧化@@ 8
侠@@ 8
俊 8
倪 8
凳@@ 8
匠@@ 8
厢@@ 8
吠 8
吧@@ 8
咸 8
哟 8
嘎@@ 8
噱@@ 8
在我@@ 8
坚 8
垠 8
墅 8
壤 8
宏 8
宵 8
寥@@ 8
巅 8
帷@@ 8
彬@@ 8
彰@@ 8
恕@@ 8
悼 8
愁@@ 8
愕 8
懈@@ 8
抵 8
拭@@ 8
挞 8
挠@@ 8
搓 8
摁 8
旧金@@ 8
昔 8
暇 8
會 8
杭 8
枷@@ 8
桃@@ 8
梗@@ 8
榨 8
橘 8
檬 8
殉@@ 8
氦@@ 8
氨 8
泳 8
涓@@ 8
淤@@ 8
烬 8
烯@@ 8
燕 8
牺@@ 8
犸@@ 8
瑰@@ 8
疲 8
盔@@ 8
盾@@ 8
矗@@ 8
砾 8
碑@@ 8
窑@@ 8
窖 8
竿@@ 8
簸 8
肽 8
胥@@ 8
胧 8
脓@@ 8
腑 8
腱 8
膳@@ 8
臆@@ 8
舶 8
艰 8
茂 8
菱@@ 8
葩 8
蒿 8
蓓@@ 8
蓬 8
蔚@@ 8
虹@@ 8
蚕 8
螺 8
褂 8
訇 8
諾 8
诃@@ 8
谭 8
豹@@ 8
贞@@ 8
跚 8
跷 8
踵@@ 8
蹋 8
蹒@@ 8
轨@@ 8
逅 8
遂 8
邀@@ 8
邂@@ 8
酚 8
酬@@ 8
醛 8
钚 8
铲 8
锑 8
锥 8
镀@@ 8
陋@@ 8
陡 8
霄 8
霓@@ 8
靓@@ 8
馈@@ 8
魅@@ 8
鯨 8
鲨@@ 8
able 7
ack 7
ai@@ 7
ance 7
angel@@ 7
asure 7
ates 7
bing 7
bir@@ 7
bl@@ 7
ble 7
camer@@ 7
can 7
christi@@ 7
ct@@ 7
democr@@ 7
dle 7
eco@@ 7
eli@@ 7
email 7
end@@ 7
eric@@ 7
est@@ 7
eve 7
fla@@ 7
fle@@ 7
free@@ 7
ft 7
ful@@ 7
fund 7
gen 7
got@@ 7
hill 7
hor@@ 7
hun@@ 7
ier 7
ini@@ 7
ity 7
len@@ 7
life 7
liver 7
lon@@ 7
maker 7
mas 7
mot@@ 7
mr 7
ner@@ 7
ough 7
oun@@ 7
out@@ 7
over 7
over@@ 7
per 7
pet 7
phi@@ 7
phil@@ 7
pic@@ 7
prize 7
prof@@ 7
py@@ 7
ren@@ 7
rich 7
right 7
share 7
sing 7
sle@@ 7
space@@ 7
spi@@ 7
ssion 7
ster@@ 7
sters 7
stri@@ 7
stro@@ 7
sur@@ 7
tech@@ 7
tel@@ 7
tele@@ 7
tes 7
web 7
web@@ 7
wired 7
woo@@ 7
wor@@ 7
xi@@ 7
yp@@ 7
ze 7
zo@@ 7
ü 7
ˎ 7
一想 7
乒@@ 7
乓@@ 7
亢@@ 7
交道 7
亵@@ 7
仆 7
仲@@ 7
俏@@ 7
俺 7
兑 7
凄@@ 7
凳 7
勿@@ 7
参 7
发现@@ 7
吕@@ 7
吟@@ 7
咆@@ 7
咔@@ 7
咫@@ 7
咯@@ 7
哮 7
唆 7
啼@@ 7
噗 7
图书@@ 7
垩@@ 7
埃塞@@ 7
壑 7
壶@@ 7
夕 7
太平@@ 7
妒@@ 7
姊@@ 7
姬@@ 7
娴@@ 7
孜@@ 7
將 7
崔 7
彰 7
忏@@ 7
怎 7
惋@@ 7
扛 7
拎 7
拙@@ 7
拣@@ 7
拧 7
拴@@ 7
捂@@ 7
揽 7
撬@@ 7
斟@@ 7
昌@@ 7
昧@@ 7
昼 7
暮@@ 7
朦@@ 7
本上 7
栖 7
栽 7
桂@@ 7
桔@@ 7
桡 7
梗 7
梨 7
毅 7
毡 7
氓 7
汪 7
沁 7
沒@@ 7
洼 7
浆@@ 7
渎 7
溃 7
滕 7
為 7
焙 7
煞@@ 7
燥@@ 7
爹 7
狐 7
琉@@ 7
甘 7
畔 7
疡 7
盯@@ 7
睪 7
瞪@@ 7
砰@@ 7
砸@@ 7
硕 7
祭 7
秆 7
稚@@ 7
窄@@ 7
窟 7
竣@@ 7
箔 7
簧@@ 7
缉@@ 7
缔 7
缜@@ 7
缮 7
罢 7
芦@@ 7
莲 7
菊@@ 7
蔗 7
蔗@@ 7
蔼 7
蛭@@ 7
蛹 7
袍@@ 7
袜 7
讶@@ 7
讼@@ 7
诬@@ 7
谊@@ 7
谩@@ 7
谭@@ 7
跛@@ 7
踱@@ 7
蹼 7
躬 7
辅 7
辗@@ 7
逍@@ 7
逛@@ 7
逸@@ 7
邃 7
钽 7
铂 7
铉 7
锌 7
镯 7
阑@@ 7
雹 7
霎@@ 7
韩 7
顷@@ 7
颚@@ 7
骂@@ 7
骸@@ 7
髖 7
鲱@@ 7
鲷@@ 7
鷉 7
鹓 7
點 7
鼎 7
２ 7
21@@ 6
abi@@ 6
acy 6
adam 6
ai 6
alia 6
amazon 6
ames 6
arti@@ 6
beat@@ 6
bin 6
bits 6
blue 6
brilliant 6
cap@@ 6
card 6
case 6
cell@@ 6
cent 6
change 6
chase 6
clean 6
connections 6
cs 6
darwin 6
dge 6
ear@@ 6
em 6
era 6
ess@@ 6
face 6
fish 6
fit@@ 6
form 6
give 6
glob@@ 6
gram 6
green@@ 6
high 6
hil@@ 6
ite 6
kni@@ 6
line 6
ll@@ 6
mars 6
master 6
med@@ 6
mel@@ 6
mouse 6
neu@@ 6
not 6
oc@@ 6
of@@ 6
ony 6
pass 6
pedia 6
pha@@ 6
plan 6
pon@@ 6
pool 6
qui@@ 6
research 6
rin@@ 6
robot 6
sand@@ 6
sav@@ 6
sci@@ 6
sell 6
show 6
sil@@ 6
snow 6
sol@@ 6
spring 6
stati@@ 6
stry 6
sue 6
sun 6
super@@ 6
sure 6
sy 6
thin@@ 6
thu@@ 6
tter 6
twe@@ 6
view 6
went 6
wer 6
wn 6
yes 6
yst@@ 6
£ 6
ó 6
· 6
丐 6
並 6
丸@@ 6
互 6
佐 6
僻@@ 6
冶@@ 6
凋@@ 6
別 6
券@@ 6
剃 6
劈 6
勺 6
勿 6
卉 6
卻 6
叭@@ 6
吝@@ 6
启 6
吾 6
呤 6
咄@@ 6
咋 6
咏@@ 6
咖@@ 6
咦 6
哑 6
哗 6
哧 6
哼@@ 6
唧 6
唬 6
啦@@ 6
啬 6
啸@@ 6
喋@@ 6
嗑 6
嗤@@ 6
嘌@@ 6
嘘@@ 6
嘭 6
嘶 6
嚎@@ 6
嚓 6
坞 6
坤 6
妃 6
妞 6
娇@@ 6
婊@@ 6
孢 6
寝@@ 6
屑@@ 6
岔 6
帘@@ 6
弋 6
彷 6
後@@ 6
徜@@ 6
從 6
怠 6
恰 6
悚 6
惟@@ 6
惫@@ 6
惮 6
惴@@ 6
意味@@ 6
憋 6
拂@@ 6
拴 6
捣 6
掰 6
撤 6
撩@@ 6
敛 6
敷@@ 6
昙@@ 6
朋 6
染色@@ 6
栓@@ 6
梁@@ 6
棘 6
楔@@ 6
槌 6
武 6
殡@@ 6
氚 6
永 6
汞 6
江 6
涛 6
渊@@ 6
渔 6
渣@@ 6
溉@@ 6
潭 6
炊@@ 6
炙@@ 6
焉 6
煎 6
熏 6
熨@@ 6
犁 6
犁@@ 6
甫@@ 6
疮@@ 6
痿 6
瞩 6
碧 6
碱 6
磋@@ 6
磐 6
禧@@ 6
秤 6
稀 6
稻 6
竿 6
笃@@ 6
筏 6
筒@@ 6
篱 6
粟 6
紫 6
纫 6
缄@@ 6
缉 6
缴 6
缸@@ 6
罂@@ 6
羟@@ 6
翳 6
腊 6
腌 6
膳 6
芳 6
芸@@ 6
苛 6
茅 6
茲 6
葆 6
蒿@@ 6
蕴 6
虏 6
蛤@@ 6
蜊 6
蝇@@ 6
蝗@@ 6
袖 6
褒@@ 6
讣@@ 6
诃 6
诋@@ 6
谓@@ 6
豫@@ 6
赔 6
赴@@ 6
蹊@@ 6
迎 6
邱@@ 6
醋 6
醚 6
铠@@ 6
镰@@ 6
镳 6
闺@@ 6
阴 6
陵 6
鞘 6
鞠@@ 6
馁 6
驹 6
骡@@ 6
鲔 6
鳝 6
鳞 6
鹤 6
麋@@ 6
＋ 6
abo@@ 5
ado@@ 5
aly@@ 5
ama 5
ap 5
ate 5
atten@@ 5
bar 5
bat@@ 5
beha@@ 5
bio@@ 5
bit@@ 5
bloo@@ 5
bomb 5
book 5
brain 5
but@@ 5
cal 5
cam@@ 5
capital 5
cat@@ 5
cent@@ 5
cher 5
cho@@ 5
cks 5
cky 5
design 5
desk 5
ding 5
dom@@ 5
drew 5
dru@@ 5
ee@@ 5
ene@@ 5
enz@@ 5
ery 5
everywhere 5
ey@@ 5
fel@@ 5
fic@@ 5
flow 5
fly 5
fol@@ 5
friend 5
fro@@ 5
ful 5
gall@@ 5
gers 5
get 5
gg@@ 5
gle 5
gui@@ 5
gun@@ 5
guy 5
hard 5
have 5
hop@@ 5
hur@@ 5
hyper@@ 5
ind 5
internet 5
ite@@ 5
jobs 5
just 5
kes 5
key@@ 5
kind 5
lady 5
lar 5
let 5
like 5
live 5
lor@@ 5
lot 5
loy@@ 5
maps 5
medi@@ 5
media 5
micha@@ 5
milk 5
mosqu@@ 5
nar@@ 5
nest 5
nex@@ 5
no 5
ods 5
office 5
ogra@@ 5
oh 5
okay 5
ome 5
ose 5
pin@@ 5
planet 5
popu@@ 5
press 5
public 5
rain 5
rat@@ 5
res 5
res@@ 5
rich@@ 5
rou@@ 5
sat@@ 5
seed 5
sel 5
sense 5
ser 5
seri@@ 5
set 5
shall 5
shel@@ 5
stone 5
store 5
sw@@ 5
ters 5
thri@@ 5
top 5
turing 5
ul 5
united 5
upon 5
use 5
use@@ 5
vision 5
war 5
whose 5
wind 5
wr@@ 5
ã 5
ö 5
丈@@ 5
俄 5
俏 5
個 5
倦@@ 5
催 5
僵 5
儒 5
允 5
兮 5
勉 5
叟 5
吮 5
吱 5
咋@@ 5
咎 5
咪@@ 5
咱 5
哄@@ 5
哔@@ 5
唬@@ 5
唯 5
喃@@ 5
嗜 5
嗦 5
嘉 5
嘱@@ 5
噎 5
嚷@@ 5
圃 5
圭@@ 5
坊@@ 5
垒@@ 5
壕 5
奎 5
孪@@ 5
孰@@ 5
宕@@ 5
寡 5
將@@ 5
峦 5
崔@@ 5
崖@@ 5
弘@@ 5
徉 5
忿@@ 5
怂@@ 5
恃@@ 5
恿 5
悯@@ 5
悴 5
惬@@ 5
慑@@ 5
憔@@ 5
戛 5
戛@@ 5
戳@@ 5
拂 5
拄 5
拈@@ 5
拗 5
拦 5
挟 5
挟@@ 5
挨 5
换句@@ 5
掷@@ 5
摈@@ 5
撰 5
昌 5
昵 5
時 5
晦 5
晾 5
暑 5
暧@@ 5
曹 5
桁@@ 5
槽@@ 5
樊@@ 5
樣 5
樱@@ 5
橙 5
气层 5
氟@@ 5
沫@@ 5
涎 5
涤 5
溺 5
澡@@ 5
烫@@ 5
焊 5
熠@@ 5
爹@@ 5
爽@@ 5
犹 5
狓 5
獭 5
玫 5
玲@@ 5
玷@@ 5
珉 5
琢 5
瑙@@ 5
璨 5
當@@ 5
疙@@ 5
疣 5
疹@@ 5
痘 5
痫@@ 5
瘩 5
瘸@@ 5
癖@@ 5
睑 5
睦@@ 5
瞅 5
瞰@@ 5
碟@@ 5
磕 5
秤@@ 5
籽@@ 5
粱 5
糅@@ 5
糖尿@@ 5
糗 5
纱@@ 5
绌 5
绎@@ 5
缤@@ 5
翘@@ 5
聋@@ 5
肋 5
肘@@ 5
肚 5
肛@@ 5
脐@@ 5
舒 5
芝 5
苍 5
茵 5
荆@@ 5
荫@@ 5
萃@@ 5
萌 5
蒸 5
蔽@@ 5
蕉@@ 5
蕊 5
虱 5
蚓 5
蚯@@ 5
蛤 5
蛰 5
蜍 5
蝠 5
螫 5
蟾@@ 5
袱 5
裨@@ 5
褶 5
觊@@ 5
觎 5
詹 5
讥@@ 5
诟@@ 5
诶 5
谍@@ 5
谣 5
豁@@ 5
贷@@ 5
踊@@ 5
踮@@ 5
蹂@@ 5
蹄@@ 5
躏 5
轩@@ 5
辫 5
迭 5
逞 5
郎@@ 5
酌@@ 5
醇@@ 5
钓 5
钠 5
钥 5
钳 5
铎 5
镊@@ 5
镍 5
颌@@ 5
馏 5
骷@@ 5
髂@@ 5
魏@@ 5
鲈@@ 5
鲍 5
鲟@@ 5
鲼 5
鳗 5
鳞@@ 5
鹊 5
鹬 5
麝@@ 5
３ 5
８ 5
９ 5
^ 4
abu@@ 4
action 4
ain 4
ama@@ 4
america 4
ander@@ 4
ath@@ 4
ation 4
ator 4
away 4
ax@@ 4
baby 4
beach 4
beh@@ 4
better 4
bike 4
black 4
boo@@ 4
bul@@ 4
california 4
canada 4
cer 4
chaos 4
cle@@ 4
clu@@ 4
const@@ 4
could 4
cre@@ 4
cure 4
cycle 4
dam@@ 4
dat@@ 4
day 4
dev@@ 4
dig@@ 4
dir@@ 4
dow 4
dr 4
ech@@ 4
ef@@ 4
ema@@ 4
eng@@ 4
enture 4
ess 4
eth@@ 4
eye 4
fal@@ 4
fe 4
feed 4
fic 4
fil@@ 4
fin@@ 4
fire 4
fire@@ 4
fish@@ 4
flo@@ 4
gang 4
gas 4
gates 4
gene@@ 4
happiness 4
hic@@ 4
hom@@ 4
home 4
ics 4
if 4
image 4
imp@@ 4
ington 4
ink 4
inse@@ 4
insi@@ 4
instru@@ 4
int 4
ira@@ 4
iran 4
joy 4
kee@@ 4
lab@@ 4
less 4
lic@@ 4
life@@ 4
lock 4
mani@@ 4
mea@@ 4
mine 4
ming 4
mom 4
nee@@ 4
ness 4
ols 4
ong 4
open 4
open@@ 4
ore@@ 4
ous@@ 4
pace 4
park 4
party 4
pay 4
peri@@ 4
pho@@ 4
pit@@ 4
plan@@ 4
poo@@ 4
pop 4
pos@@ 4
power 4
prin@@ 4
prote@@ 4
pus 4
qua@@ 4
quest 4
rand@@ 4
ring 4
sage 4
sau@@ 4
school 4
scot@@ 4
see@@ 4
sequ@@ 4
should 4
sian 4
sion 4
smo@@ 4
sor@@ 4
squ@@ 4
start 4
stern 4
stru@@ 4
sum 4
sus 4
sy@@ 4
technologies 4
tee@@ 4
think 4
tie 4
treatment 4
tro@@ 4
ture 4
tures 4
vac@@ 4
vic@@ 4
vie@@ 4
virg@@ 4
wards 4
wee@@ 4
wer@@ 4
whole 4
wo@@ 4
ye@@ 4
yer 4
you@@ 4
youth 4
zing 4
¶ 4
è 4
í 4
อ 4
€ 4
丈 4
亘 4
以色@@ 4
企 4
伫@@ 4
佃@@ 4
佣 4
佷 4
俑@@ 4
俨@@ 4
俳@@ 4
傅 4
內@@ 4
兮@@ 4
冗 4
冤@@ 4
凸 4
劾 4
動@@ 4
匍@@ 4
卧 4
厅@@ 4
厥 4
叩@@ 4
呗 4
呛 4
呢@@ 4
呦 4
呱@@ 4
咕@@ 4
咧@@ 4
咽@@ 4
哩@@ 4
哽@@ 4
啄 4
喀 4
嗷 4
嘎 4
噶@@ 4
囤@@ 4
夭 4
奠 4
奧@@ 4
妓 4
婉@@ 4
婭@@ 4
婶 4
婶@@ 4
婿 4
媚@@ 4
媾 4
孀 4
孰 4
孽 4
宛 4
寐 4
寮 4
岂@@ 4
岖@@ 4
岬 4
巍@@ 4
帛 4
幂@@ 4
庇 4
弧 4
彪@@ 4
惩 4
慵@@ 4
扈 4
扒 4
拄@@ 4
拣 4
捶@@ 4
揉 4
搪@@ 4
摧 4
摹 4
撮@@ 4
撷@@ 4
擅 4
攀 4
攒@@ 4
攘 4
攘@@ 4
攥 4
敞 4
斤@@ 4
枕 4
枣@@ 4
栗@@ 4
梢 4
槟@@ 4
檐 4
欺 4
氘 4
沛@@ 4
波士@@ 4
注意@@ 4
泵@@ 4
泻@@ 4
洼@@ 4
洽@@ 4
涕@@ 4
淫@@ 4
淹 4
渝 4
滕@@ 4
滩@@ 4
漾 4
澜@@ 4
灸 4
為@@ 4
烃 4
牦@@ 4
狭 4
猥@@ 4
猬 4
獠@@ 4
玲 4
珈 4
珑 4
琵@@ 4
璜 4
甥 4
甥@@ 4
皈@@ 4
盥@@ 4
眩 4
眺@@ 4
睛 4
瞥@@ 4
瞭@@ 4
瞳@@ 4
砌@@ 4
砧 4
硒 4
硼@@ 4
碉@@ 4
碌@@ 4
穹 4
窑 4
窜@@ 4
笃 4
笺 4
筐 4
簇@@ 4
籁 4
給 4
纫@@ 4
纶 4
绊 4
绰@@ 4
绷 4
翠 4
耘 4
耿@@ 4
聿@@ 4
胀@@ 4
胝 4
胭@@ 4
胼@@ 4
腮 4
腻@@ 4
膨@@ 4
膺 4
舟@@ 4
芋 4
苜@@ 4
苷@@ 4
莞 4
菇@@ 4
萤@@ 4
葺 4
蔡 4
蕙 4
蕨@@ 4
藐@@ 4
蘸 4
蛔@@ 4
螽@@ 4
衬 4
袒 4
裡 4
觑 4
說 4
诘@@ 4
话说 4
诧 4
诲 4
谑 4
豌@@ 4
資@@ 4
赃@@ 4
赋 4
赤 4
跛 4
跻@@ 4
遛@@ 4
邪 4
鄂@@ 4
酰@@ 4
醺 4
醺@@ 4
钝@@ 4
钽@@ 4
铰@@ 4
锆 4
锚 4
锣@@ 4
锦 4
镐 4
闯 4
闸 4
预 4
颜 4
飚 4
驴@@ 4
骇 4
魅 4
魏 4
魟 4
鲭 4
鲾 4
鸫 4
鹫 4
麸@@ 4
黏 4
龈 4
﹕ 4
0s 3
aca@@ 3
acade@@ 3
access 3
active 3
aid 3
air 3
als 3
anim@@ 3
ank 3
architecture 3
ared 3
bal 3
beau@@ 3
bic@@ 3
big 3
big@@ 3
ble@@ 3
boston 3
bridge 3
broad@@ 3
burn 3
but 3
call@@ 3
cape 3
center 3
central 3
ces 3
chap@@ 3
clear 3
clo@@ 3
colle@@ 3
concer@@ 3
control 3
coun@@ 3
cour@@ 3
curr@@ 3
dance 3
deal 3
ded 3
dis@@ 3
disease 3
dot 3
doz@@ 3
dul@@ 3
ead 3
edi@@ 3
einstein 3
end 3
enti@@ 3
evil 3
farmer 3
fas@@ 3
faster 3
fed 3
ffe@@ 3
figu@@ 3
forced 3
fun@@ 3
game 3
gap 3
ged 3
geo@@ 3
ges 3
gli@@ 3
glo@@ 3
god 3
gold 3
gon 3
good 3
group 3
gul@@ 3
hand@@ 3
head 3
health 3
hot 3
house 3
howe@@ 3
hus@@ 3
ib@@ 3
impact 3
inde@@ 3
institu@@ 3
ison 3
israel 3
ist 3
ites 3
joh@@ 3
jour@@ 3
jun@@ 3
kers 3
kne@@ 3
lake 3
lat@@ 3
log@@ 3
london 3
long 3
love 3
lum 3
machine 3
mag@@ 3
maj@@ 3
make 3
market 3
match 3
ment 3
mid@@ 3
mind 3
mission 3
mothers 3
mountain 3
national 3
nei@@ 3
neuro@@ 3
nings 3
north 3
note 3
od 3
om 3
omy 3
one@@ 3
oni@@ 3
ons 3
org@@ 3
ound 3
out 3
pack@@ 3
partners 3
pen 3
pers 3
pie@@ 3
play 3
ple 3
plu@@ 3
poin@@ 3
psych@@ 3
pul@@ 3
pun@@ 3
purpose 3
radio 3
rare 3
read 3
read@@ 3
report 3
rest 3
ric 3
rice 3
rise 3
run 3
said 3
sal 3
science 3
sea 3
sear@@ 3
search 3
shor@@ 3
sir 3
slo@@ 3
soft 3
song 3
sp 3
sper@@ 3
spo@@ 3
spre@@ 3
ssa@@ 3
ssing 3
staf@@ 3
star 3
state 3
stea@@ 3
sted 3
stre@@ 3
sul@@ 3
sum@@ 3
surface 3
swe@@ 3
sym@@ 3
target 3
them@@ 3
thom@@ 3
tic 3
tin 3
tion@@ 3
tis@@ 3
told 3
tomorrow 3
tonight 3
trav@@ 3
ure 3
ven 3
vers 3
wall 3
washington 3
wea@@ 3
what@@ 3
whi@@ 3
winter 3
wire 3
wise 3
with 3
would 3
yard 3
your 3
your@@ 3
zar@@ 3
zer@@ 3
{ 3
° 3
丫@@ 3
之为 3
乾@@ 3
亞 3
伶@@ 3
佯@@ 3
來@@ 3
侪 3
俭 3
俯 3
僧 3
兢@@ 3
凝 3
凹 3
刁@@ 3
刍 3
刨 3
創@@ 3
劈@@ 3
勘 3
匐 3
匙@@ 3
厕 3
厮@@ 3
吆@@ 3
吋 3
吗@@ 3
吾@@ 3
呀@@ 3
呛@@ 3
咏 3
咧 3
哺 3
唑 3
唵 3
啃 3
啃@@ 3
啕@@ 3
啜@@ 3
啡 3
啡@@ 3
啰@@ 3
喱 3
喹 3
嗎 3
嗖 3
嗞 3
嗡 3
嗪 3
嘣 3
噪 3
噻 3
噼@@ 3
囧 3
坂@@ 3
坛@@ 3
堑 3
塚 3
壬 3
姥@@ 3
娄 3
娇 3
孚 3
宋@@ 3
宕 3
宠 3
宣 3
宪 3
宵@@ 3
寇 3
履 3
屹@@ 3
峻@@ 3
崎 3
崽@@ 3
帚 3
幂 3
幻灯@@ 3
庵 3
徐 3
徐@@ 3
忐@@ 3
忖 3
怦@@ 3
恣@@ 3
恪@@ 3
惺 3
惺@@ 3
愉 3
愿者 3
憾 3
憾@@ 3
懵@@ 3
戊@@ 3
成百@@ 3
扒@@ 3
扩 3
抡 3
披 3
拮@@ 3
捎 3
捱@@ 3
掏 3
掖 3
採@@ 3
搂 3
搔@@ 3
斋 3
斡@@ 3
旭@@ 3
昴 3
显微@@ 3
晋 3
曜@@ 3
曦 3
曰 3
曹@@ 3
札@@ 3
杞@@ 3
枉@@ 3
枘 3
枫@@ 3
枭 3
柑@@ 3
柬 3
柳 3
栈 3
株@@ 3
桂 3
椋@@ 3
榭 3
榭@@ 3
榷 3
樟@@ 3
歹 3
毂 3
毙@@ 3
氪 3
氰@@ 3
汀@@ 3
決@@ 3
沓 3
沸 3
沼 3
泯@@ 3
浃@@ 3
涛@@ 3
淙 3
淙@@ 3
渗 3
湍@@ 3
湎 3
湛@@ 3
湮@@ 3
滓 3
漉 3
漉@@ 3
漓 3
漓@@ 3
澳 3
灼 3
炖 3
炬 3
烊 3
烷@@ 3
焰@@ 3
煞 3
熄 3
熨 3
燎@@ 3
牒 3
狒 3
狒@@ 3
猩@@ 3
現@@ 3
琅@@ 3
琉 3
琪@@ 3
瓢@@ 3
疥@@ 3
疱@@ 3
疸 3
疽@@ 3
痂 3
痍 3
痤@@ 3
瘀 3
瘘@@ 3
瘪 3
癫 3
盹@@ 3
眯@@ 3
睹@@ 3
瞒@@ 3
瞻 3
砜 3
砷 3
砾@@ 3
磐@@ 3
祂 3
祟 3
禀 3
秸@@ 3
秽 3
窪@@ 3
窿 3
竞 3
簿@@ 3
粕 3
納@@ 3
絮@@ 3
纾@@ 3
络@@ 3
绢 3
绮@@ 3
综 3
缎 3
缪 3
羁 3
羔 3
羡 3
羹 3
翘 3
翩 3
脐 3
脯 3
腆 3
腼@@ 3
膏@@ 3
臀 3
臃@@ 3
臣@@ 3
舔@@ 3
舵@@ 3
苟 3
苷 3
茧@@ 3
茬 3
荚 3
荼@@ 3
菡 3
葆@@ 3
蒜 3
蓿 3
蔫 3
蔼@@ 3
藓@@ 3
虱@@ 3
蚣 3
蚤@@ 3
蛀@@ 3
蛆@@ 3
蜈@@ 3
蜚@@ 3
蜥 3
蝉 3
蝮@@ 3
蝶@@ 3
螯@@ 3
蟒 3
裡@@ 3
裳 3
诌@@ 3
诣 3
谅@@ 3
谙 3
豚@@ 3
貂@@ 3
貝@@ 3
赃 3
赈@@ 3
赘 3
赝 3
跄 3
跤@@ 3
踉@@ 3
踹 3
蹭 3
躬@@ 3
轧@@ 3
辟@@ 3
這 3
逢@@ 3
遛 3
遮 3
遵 3
還@@ 3
邝 3
邸 3
酊@@ 3
酣 3
酥 3
酩@@ 3
釉 3
钙@@ 3
钵 3
钶 3
钾@@ 3
铛@@ 3
铨 3
铬 3
铱 3
铿@@ 3
锄@@ 3
锇 3
锒@@ 3
镁@@ 3
镉 3
隽@@ 3
霹@@ 3
靛@@ 3
靶 3
鞍 3
須 3
颁 3
颐 3
馅 3
馋 3
馏@@ 3
馮 3
驭@@ 3
髅 3
魯@@ 3
鲷 3
鳟 3
鸠 3
鸢 3
鹉@@ 3
鹤@@ 3
麟 3
鼹@@ 3
鼾@@ 3
﹣ 3
５ 3
７ 3
｡ 3
&#@@ 2
ables 2
abor@@ 2
about 2
acher 2
afri@@ 2
against 2
ales 2
alo@@ 2
aly 2
ambi@@ 2
american 2
ants 2
anything 2
apart 2
aria 2
artist 2
asking 2
ass 2
auton@@ 2
back@@ 2
bage 2
ball 2
bank 2
banks 2
bby 2
bed 2
bes 2
biom@@ 2
bli@@ 2
bow 2
boy 2
boys 2
bright 2
bring 2
brothers 2
buil@@ 2
build 2
bush 2
care 2
cases 2
cause 2
cep@@ 2
channel 2
chicago 2
chil@@ 2
child@@ 2
christ@@ 2
cket 2
classic 2
clin@@ 2
close 2
code 2
comm@@ 2
conference 2
cost 2
country 2
craft 2
crea@@ 2
crisis 2
cru@@ 2
ctor 2
ctors 2
cul@@ 2
cus 2
cut 2
dea@@ 2
dead 2
deci@@ 2
deep 2
def@@ 2
dem@@ 2
dence 2
dep@@ 2
ders 2
dic@@ 2
dio@@ 2
dire@@ 2
direct 2
dog 2
dom 2
door 2
down 2
down@@ 2
drive 2
dro@@ 2
drove 2
dur@@ 2
dynamic 2
edit@@ 2
effective 2
emer@@ 2
emo@@ 2
ending 2
engineering 2
ep 2
erci@@ 2
ese 2
ester@@ 2
even@@ 2
ever@@ 2
fab@@ 2
fair@@ 2
far 2
fat@@ 2
fied 2
fif@@ 2
fight 2
five 2
flu@@ 2
foot 2
fore@@ 2
forever 2
foundation 2
francisco 2
french 2
garden 2
gave 2
gay 2
genes 2
genom@@ 2
german 2
gir@@ 2
giving 2
glu@@ 2
got 2
gran@@ 2
graph 2
grateful 2
grou@@ 2
guil@@ 2
gy 2
happ@@ 2
head@@ 2
hey 2
hole 2
hope 2
hou@@ 2
humanity 2
ically 2
ici@@ 2
ies 2
igh@@ 2
illness 2
illustr@@ 2
india 2
infe@@ 2
inner 2
interest 2
international 2
inv@@ 2
invisible 2
invite 2
isra@@ 2
ited 2
jap@@ 2
jud@@ 2
jump 2
justi@@ 2
kenya 2
kid 2
kill 2
lem@@ 2
lift 2
link 2
list@@ 2
local 2
logy 2
look 2
lun@@ 2
mach@@ 2
magaz@@ 2
mam@@ 2
math 2
mber 2
memory 2
mental 2
mes 2
million 2
mini@@ 2
mir@@ 2
modi@@ 2
money 2
moon 2
mor 2
mpi@@ 2
mple 2
nam@@ 2
name 2
nas@@ 2
nation 2
ned 2
ners 2
networks 2
next 2
noise 2
nor 2
not@@ 2
notes 2
now 2
now@@ 2
oci@@ 2
oes 2
olu@@ 2
onic 2
onics 2
orchestr@@ 2
ors 2
ould 2
ounds 2
ous 2
ow@@ 2
own 2
pain@@ 2
para@@ 2
paris 2
particip@@ 2
pas@@ 2
patient 2
peace 2
pest 2
phan@@ 2
phic 2
photograph 2
pid 2
ping 2
place 2
playing 2
plus 2
police 2
port 2
port@@ 2
post 2
powers 2
pres@@ 2
program 2
promise 2
pt 2
push 2
question 2
radi@@ 2
rain@@ 2
rais@@ 2
reduce 2
religi@@ 2
rene@@ 2
rever@@ 2
rid 2
rio 2
rup@@ 2
safe@@ 2
say 2
scope 2
score 2
scri@@ 2
script 2
sculp@@ 2
seas 2
sees 2
serious 2
serve 2
ses 2
sex 2
shark 2
shift 2
shing 2
sic 2
sides 2
sin 2
sions 2
sis 2
ske@@ 2
ski@@ 2
smart 2
sna@@ 2
solid 2
something 2
soon 2
spa@@ 2
span@@ 2
spe@@ 2
spec@@ 2
spect 2
spirit 2
spot 2
stan 2
stanford 2
stat@@ 2
station 2
ste 2
steel 2
story 2
stra@@ 2
sts 2
sugar 2
super 2
sustainable 2
syn@@ 2
synthetic 2
tag 2
tain 2
take 2
taught 2
technology 2
telescope 2
tell 2
tem@@ 2
terr@@ 2
testing 2
tex 2
them 2
thers 2
things 2
tho@@ 2
tically 2
ties 2
times 2
tin@@ 2
tion 2
tive 2
tol@@ 2
toms 2
tou@@ 2
town 2
toys 2
tra@@ 2
transition 2
tun@@ 2
two 2
ude 2
university 2
up@@ 2
uri@@ 2
village 2
viol@@ 2
vis@@ 2
vol@@ 2
wanted 2
was@@ 2
wave 2
waves 2
what 2
whatever 2
when 2
which 2
who 2
why 2
wide@@ 2
wild 2
win 2
with@@ 2
works 2
worth 2
year 2
yed 2
yel@@ 2
yesterday 2
yor@@ 2
ä 2
ê 2
ñ 2
ø 2
α 2
θ 2
ย 2
ร 2
่ 2
丙 2
乍 2
亞@@ 2
亥 2
亵 2
仕 2
佝@@ 2
侃@@ 2
侬 2
侮 2
俐@@ 2
俩@@ 2
俭@@ 2
倔@@ 2
偎 2
偻@@ 2
傅@@ 2
傢@@ 2
允@@ 2
克力 2
內 2
冀 2
冉@@ 2
冕 2
冕@@ 2
冤 2
凛@@ 2
凱@@ 2
刨@@ 2
刹 2
則@@ 2
勋 2
動 2
千上@@ 2
卯@@ 2
厉@@ 2
厘 2
厩 2
厮 2
吴@@ 2
呯 2
咀 2
咂 2
哉 2
哝 2
哞 2
唁 2
唉@@ 2
唏@@ 2
唛 2
啧@@ 2
啪@@ 2
啰 2
啶 2
啷 2
啼 2
喇 2
喵 2
嗖@@ 2
嗤 2
嗷@@ 2
嘞 2
嘤 2
嘧@@ 2
噁 2
噙 2
噩 2
囹@@ 2
圄 2
坝@@ 2
坟 2
坯@@ 2
坷 2
垛 2
垩 2
墩 2
壞 2
夠 2
奕 2
妄 2
妊@@ 2
妖 2
妠 2
妩@@ 2
妲 2
妳@@ 2
姻 2
娠 2
嫂 2
嫖@@ 2
嬴 2
嬴@@ 2
孱@@ 2
寇@@ 2
寥 2
實 2
對@@ 2
尧@@ 2
屎@@ 2
屡 2
岚 2
峨 2
巍 2
師 2
帼 2
幄 2
幹 2
幺 2
幾@@ 2
庐 2
廊@@ 2
弑@@ 2
弥 2
彼 2
忑 2
忱@@ 2
怅 2
怠@@ 2
怡@@ 2
恬@@ 2
恭 2
恸 2
惆@@ 2
惘 2
惶 2
愣 2
愣@@ 2
愫 2
憎 2
憩 2
憬@@ 2
戟@@ 2
拋@@ 2
拘 2
拢@@ 2
挝 2
捅@@ 2
掀 2
掂 2
掐@@ 2
掣 2
揪 2
揽@@ 2
搂@@ 2
搓@@ 2
搡 2
撂 2
撇 2
撕 2
擂 2
擒@@ 2
攝 2
敖@@ 2
數@@ 2
旮@@ 2
時@@ 2
暄 2
暧 2
暮 2
暸@@ 2
朔 2
朔@@ 2
枣 2
柚 2
柚@@ 2
栅 2
栉 2
桉@@ 2
桎@@ 2
梏 2
梧 2
梨@@ 2
楠 2
楣 2
業 2
榉 2
榔 2
榻 2
樂@@ 2
歼 2
歼@@ 2
殃 2
殴 2
毗 2
毡@@ 2
氓@@ 2
氙@@ 2
氟 2
氯 2
汶@@ 2
汹 2
沈 2
沐 2
沓@@ 2
沦 2
泞 2
泣@@ 2
泱@@ 2
浣@@ 2
涝 2
涣@@ 2
淆@@ 2
淘 2
淨 2
淼 2
渺 2
湄@@ 2
滔 2
潭@@ 2
潺@@ 2
澈@@ 2
炊 2
烙 2
焕 2
焚 2
煌@@ 2
熔 2
燧@@ 2
犀 2
犄@@ 2
狈@@ 2
狞 2
狰@@ 2
猁 2
猞@@ 2
猩 2
玄 2
珞@@ 2
琶@@ 2
瑕 2
瑙 2
瑪@@ 2
璀@@ 2
瓮 2
甫 2
甾 2
痼@@ 2
發 2
皓@@ 2
盹 2
眶 2
眶@@ 2
眸 2
眺 2
睛@@ 2
睽 2
睽@@ 2
砥@@ 2
碘@@ 2
碾 2
磋 2
磕@@ 2
祗 2
祛@@ 2
禄@@ 2
禾@@ 2
秦@@ 2
秽@@ 2
稔 2
稼@@ 2
窟@@ 2
窦 2
窦@@ 2
竺@@ 2
粟@@ 2
糠 2
紊 2
統 2
維@@ 2
纣@@ 2
纰@@ 2
纺 2
绅 2
绍 2
绣@@ 2
绨 2
绯@@ 2
缇 2
缇@@ 2
缎@@ 2
缕@@ 2
罄 2
罔@@ 2
羁@@ 2
羯@@ 2
翁@@ 2
翡@@ 2
耙 2
耦@@ 2
肃 2
胚 2
胱@@ 2
胺@@ 2
脾 2
腋 2
腓 2
膛@@ 2
臻 2
臼 2
舀 2
艄 2
苇 2
苇@@ 2
茜@@ 2
茴@@ 2
茵@@ 2
茹@@ 2
荐@@ 2
荟@@ 2
荻 2
莊 2
莴@@ 2
莺 2
菁@@ 2
萍 2
葱@@ 2
蒜@@ 2
蔚 2
蔷@@ 2
蔻 2
蕃@@ 2
藜@@ 2
蚌 2
蚌@@ 2
蚤 2
蛊 2
蛊@@ 2
蛭 2
蛰@@ 2
蛾@@ 2
蜃@@ 2
蜇@@ 2
蜷 2
螅 2
螫@@ 2
蟒@@ 2
蟹@@ 2
術 2
衝@@ 2
袒@@ 2
裘@@ 2
裱 2
褥@@ 2
褪 2
襁@@ 2
襟 2
襟@@ 2
見 2
訊 2
許@@ 2
試 2
話 2
說@@ 2
請 2
讧 2
讽@@ 2
诿 2
谙@@ 2
谦 2
豺@@ 2
貴 2
赡@@ 2
赦@@ 2
趴 2
跄@@ 2
踌@@ 2
踝@@ 2
踞 2
蹶@@ 2
蹿@@ 2
躇@@ 2
車 2
辄@@ 2
辈@@ 2
辊 2
辍 2
辦 2
過 2
遐@@ 2
達 2
遗 2
遴@@ 2
邓 2
邹 2
郝@@ 2
郡@@ 2
郭@@ 2
酐 2
酣@@ 2
酰 2
酶@@ 2
醋@@ 2
鐡 2
钦 2
铂@@ 2
铐@@ 2
铒 2
铣@@ 2
铤@@ 2
锂@@ 2
锆@@ 2
锌@@ 2
锏 2
锝 2
镀 2
镂@@ 2
镖@@ 2
镫 2
镶 2
開 2
闩 2
闳 2
陀 2
隨 2
雏 2
難 2
雳 2
霄@@ 2
霾 2
靡@@ 2
鞭 2
颏 2
颓@@ 2
颞 2
颧@@ 2
饥 2
饵@@ 2
饺 2
馬 2
骋 2
骤 2
骶 2
髅@@ 2
髻 2
鬃 2
魄@@ 2
鲎 2
鲑 2
鳀 2
鳃@@ 2
鳐 2
鳕 2
鳟@@ 2
鸠@@ 2
鸵@@ 2
鹊@@ 2
鹭 2
鹱 2
麓 2
麗@@ 2
麟@@ 2
黾 2
鼾 2
﹒ 2
６ 2
＠ 2
ability 1
ace@@ 1
aches 1
acity 1
activi@@ 1
ads 1
advanced 1
aff@@ 1
africa 1
african 1
after@@ 1
aga@@ 1
agers 1
agre@@ 1
airplane 1
alga@@ 1
alism 1
ality 1
allo@@ 1
also 1
ameri@@ 1
ancy 1
ands 1
animal 1
answers 1
apo@@ 1
applied 1
ards 1
area 1
aren 1
aries 1
around 1
arts 1
asse@@ 1
assi@@ 1
associ@@ 1
ast 1
ast@@ 1
ated 1
atlan@@ 1
ats 1
authenti@@ 1
awareness 1
awe@@ 1
bac@@ 1
ban 1
band 1
bang 1
base 1
bay 1
bble 1
bear 1
beat 1
because 1
bee 1
bee@@ 1
beginning 1
beliefs 1
between 1
bey@@ 1
beyond 1
bia 1
bias 1
bicy@@ 1
biology 1
bird 1
birth 1
blin@@ 1
blog 1
blu@@ 1
board 1
body 1
bold 1
bom@@ 1
bone 1
books 1
born 1
bots 1
boxes 1
brains 1
bran@@ 1
bread 1
break 1
breaking 1
breast 1
brit@@ 1
brow@@ 1
bubble 1
bud@@ 1
business 1
calcul@@ 1
campaign 1
carb@@ 1
carrying 1
cast 1
cate 1
ced 1
cell 1
cere@@ 1
cheap 1
chemical 1
chemistry 1
chen 1
ches 1
childhood 1
chinese 1
chip 1
choice 1
christmas 1
chur@@ 1
church 1
cil 1
cing 1
circle 1
cisco 1
cities 1
civilization 1
cked 1
cles 1
climb 1
cloud 1
clouds 1
club 1
cognitive 1
cold 1
college 1
colon@@ 1
color 1
comb@@ 1
comes 1
comfort 1
commercial 1
common@@ 1
comp@@ 1
company 1
compe@@ 1
completely 1
compu@@ 1
computer 1
computing 1
connect 1
cont@@ 1
contains 1
continu@@ 1
cook 1
cool 1
cos@@ 1
cot@@ 1
couldn 1
court 1
crazy 1
creates 1
creatures 1
cross 1
ctable 1
ction 1
cup 1
curi@@ 1
curve 1
custom@@ 1
dama@@ 1
define 1
deli@@ 1
demo@@ 1
demon@@ 1
desi@@ 1
destruction 1
did 1
digital 1
dinosa@@ 1
disa@@ 1
disc@@ 1
discover 1
discovery 1
distri@@ 1
distribu@@ 1
does 1
domestic 1
domin@@ 1
dreams 1
driven 1
due 1
each 1
earth@@ 1
east 1
eat 1
econ@@ 1
edge 1
education 1
effectively 1
electr@@ 1
electro@@ 1
electronic 1
elephant 1
els 1
else@@ 1
emb@@ 1
embar@@ 1
empa@@ 1
empty 1
ency 1
engineer 1
ening 1
entire 1
entreprene@@ 1
ents 1
equality 1
equi@@ 1
esis 1
essential 1
est 1
etary 1
ethiop@@ 1
evi@@ 1
expensive 1
experience 1
expert 1
extre@@ 1
eyes 1
fac@@ 1
factor 1
factory 1
fall 1
fall@@ 1
fam@@ 1
fascinating 1
fast 1
father 1
feder@@ 1
feeding 1
fell 1
fields 1
figh@@ 1
fighting 1
fir@@ 1
first 1
floo@@ 1
flu 1
food 1
foot@@ 1
force 1
fore 1
forms 1
fortune 1
forward 1
foun@@ 1
found 1
four 1
fren@@ 1
from 1
fron@@ 1
fru@@ 1
fun 1
fy 1
galaxy 1
gard@@ 1
general 1
genome 1
genu@@ 1
geogra@@ 1
ggs 1
giant 1
gile 1
gives 1
glass 1
gnity 1
going 1
gover@@ 1
gradu@@ 1
grand@@ 1
grass 1
grate@@ 1
gravity 1
gray 1
great 1
great@@ 1
grow@@ 1
growing 1
gry 1
guar@@ 1
gun 1
gy@@ 1
half 1
hall@@ 1
hand 1
hands 1
happy 1
harvard 1
harve@@ 1
has@@ 1
haven 1
heads 1
heal@@ 1
health@@ 1
heli@@ 1
here 1
heroes 1
hide 1
hin@@ 1
history 1
home@@ 1
hon@@ 1
hood 1
horse 1
hotel 1
how 1
hren@@ 1
human 1
ial 1
idea 1
ied 1
ign@@ 1
ild 1
ils 1
images 1
incenti@@ 1
incredi@@ 1
industri@@ 1
ined 1
ings 1
ining 1
innovation 1
insects 1
insight 1
instrument 1
intu@@ 1
invent@@ 1
irs 1
island 1
ism 1
issues 1
itable 1
ize 1
keep 1
keeping 1
kid@@ 1
kids 1
king@@ 1
kness 1
kno@@ 1
know 1
know@@ 1
langu@@ 1
lap@@ 1
laptop 1
large 1
lation 1
lay 1
leg 1
leg@@ 1
liber@@ 1
light 1
limit 1
lion 1
living 1
logical 1
loo@@ 1
loved 1
low@@ 1
magazine 1
main 1
makes 1
mal 1
malaria 1
male 1
manufacturing 1
march 1
marine 1
markets 1
marri@@ 1
mate 1
materials 1
matter 1
matters 1
maxi@@ 1
mbers 1
mechanical 1
medicine 1
meet 1
meetings 1
memb@@ 1
mers 1
meta@@ 1
meth@@ 1
mexic@@ 1
mic 1
mic@@ 1
mice 1
micro@@ 1
minds 1
minu@@ 1
minutes 1
mirror 1
missi@@ 1
mono@@ 1
mortality 1
most 1
moun@@ 1
mouth 1
movement 1
movies 1
mps 1
multi@@ 1
muscle 1
musi@@ 1
nai@@ 1
nal 1
nations 1
naturally 1
nature 1
near 1
needs 1
network 1
nia 1
nice 1
nific@@ 1
nig@@ 1
nine 1
ning 1
nit@@ 1
non@@ 1
notice 1
noticed 1
objects 1
ocean 1
oil 1
oms 1
once 1
ond 1
ong@@ 1
online 1
onto 1
ony@@ 1
ood 1
oper@@ 1
oran@@ 1
organisms 1
ote 1
ound@@ 1
paci@@ 1
pack 1
pages 1
part@@ 1
participate 1
partner 1
parts 1
path 1
patients 1
patter@@ 1
pay@@ 1
peak 1
peop@@ 1
perfor@@ 1
performance 1
period 1
perman@@ 1
personal 1
phen@@ 1
philanthro@@ 1
phy 1
phy@@ 1
pick 1
pir@@ 1
placed 1
plat@@ 1
play@@ 1
pod 1
poetry 1
pole 1
pon 1
poor 1
presen@@ 1
present 1
presents 1
pret@@ 1
preven@@ 1
prison@@ 1
private 1
product 1
profit 1
program@@ 1
progre@@ 1
prom@@ 1
prou@@ 1
put 1
puzz@@ 1
py 1
quan@@ 1
quar@@ 1
quarter 1
queen 1
quic@@ 1
quite 1
raising 1
random 1
rapi@@ 1
rate 1
reach 1
real@@ 1
really 1
recyc@@ 1
redu@@ 1
ree 1
refle@@ 1
rele@@ 1
rem@@ 1
repair 1
rer 1
resources 1
rev@@ 1
revolution 1
ride 1
ridge 1
ries 1
risk 1
rist 1
river 1
rough@@ 1
run@@ 1
running 1
rupt 1
sac@@ 1
satur@@ 1
save 1
saw 1
scale 1
scan@@ 1
sco 1
sco@@ 1
scra@@ 1
scre@@ 1
screen 1
secon@@ 1
secu@@ 1
secure 1
sed 1
seem 1
sele@@ 1
sen@@ 1
senior 1
sent@@ 1
sev@@ 1
ship 1
ships 1
shoes 1
shows 1
sic@@ 1
sick 1
side 1
simp@@ 1
simple 1
single 1
sit@@ 1
sleep 1
small@@ 1
smar@@ 1
smart@@ 1
smel@@ 1
smell 1
social 1
solar 1
solution 1
solutions 1
some@@ 1
sons 1
sophi@@ 1
sorry 1
soul 1
southern 1
species 1
spee@@ 1
sphere 1
split 1
sports 1
spread 1
square 1
ssy 1
staff 1
steri@@ 1
stick 1
sting 1
sto@@ 1
stock 1
stop 1
stor@@ 1
stron@@ 1
student 1
students 1
studi@@ 1
studies 1
survey 1
taking 1
tal 1
talking 1
talks 1
tch 1
teach 1
team 1
techno@@ 1
texas 1
thal 1
than@@ 1
their 1
then 1
there 1
there@@ 1
these 1
they 1
this 1
though 1
thous@@ 1
thousand 1
three 1
thro@@ 1
through 1
tic@@ 1
til@@ 1
tim@@ 1
time 1
ting 1
tional 1
tionally 1
tions 1
tip 1
tish 1
tivity 1
tiz@@ 1
today 1
together 1
toi@@ 1
tons 1
tools 1
tops 1
touch 1
tour 1
trac@@ 1
train 1
tran@@ 1
trans@@ 1
transform 1
transport 1
transportation 1
tric 1
trust 1
tting 1
tum 1
tum@@ 1
twit@@ 1
type 1
uncle 1
under 1
under@@ 1
unexpected 1
union 1
until 1
uro@@ 1
ury 1
user 1
uses 1
using 1
valley 1
value 1
vege@@ 1
velo@@ 1
very 1
veter@@ 1
ving 1
vir@@ 1
virtual 1
voice 1
vul@@ 1
vy 1
walk 1
wash@@ 1
weather 1
wed 1
western 1
while 1
who@@ 1
wide 1
window 1
wing 1
within 1
wl 1
wom@@ 1
won@@ 1
wonder 1
words 1
work 1
worldwide 1
worse 1
yea@@ 1
year@@ 1
yellow 1
yers 1
yet 1
yi@@ 1
yor 1
yourself 1
zes 1
¥ 1
² 1
¾ 1
à 1
å 1
æ 1
ì 1
ï 1
÷ 1
ā 1
ē 1
ě 1
š 1
˙ 1
γ 1
σ 1
φ 1
а 1
к 1
л 1
ⅱ 1
♡ 1
〔 1
〕 1
ム 1
ㄧ 1
並@@ 1
丫 1
主义@@ 1
亢 1
仑@@ 1
仕@@ 1
伊斯兰@@ 1
伶 1
佈 1
佑@@ 1
佯 1
佰 1
佰@@ 1
侍 1
侨@@ 1
侩 1
俊@@ 1
俐 1
俢 1
俬 1
俱 1
倆@@ 1
倌 1
倩@@ 1
側@@ 1
傍 1
傢 1
價 1
儘 1
優@@ 1
兀 1
兒 1
兜 1
兢 1
兩@@ 1
冏 1
冢@@ 1
冥 1
冪@@ 1
冯@@ 1
冶 1
冽 1
凛 1
刋 1
刘 1
删 1
別@@ 1
剀 1
剁 1
剁@@ 1
剌 1
剐 1
剛@@ 1
剽@@ 1
剿 1
剿@@ 1
励 1
勞@@ 1
匈 1
匐@@ 1
匕@@ 1
匝 1
匱@@ 1
匾 1
匾@@ 1
區 1
區@@ 1
卍 1
協@@ 1
博物@@ 1
卤 1
卦@@ 1
參 1
叙 1
叨@@ 1
叽 1
叽@@ 1
吁@@ 1
吏 1
吕 1
吖@@ 1
吭 1
吭@@ 1
吮@@ 1
吶@@ 1
员会 1
呱 1
咂@@ 1
咄 1
咔 1
咖 1
咝 1
咝@@ 1
哆@@ 1
哉@@ 1
哌 1
哗@@ 1
唆@@ 1
唏 1
唑@@ 1
唰 1
唷 1
啁@@ 1
問 1
啓 1
啤 1
啶@@ 1
啻 1
啾 1
喃 1
喏 1
喑 1
喚 1
喬@@ 1
喱@@ 1
喳 1
喳@@ 1
喽 1
嗔@@ 1
嗦@@ 1
嗳 1
嘀 1
嘗@@ 1
嘩 1
嘿@@ 1
噎@@ 1
噘@@ 1
噤@@ 1
噱 1
嚎 1
嚣@@ 1
嚮 1
嚯 1
嚼@@ 1
囔 1
囗 1
団 1
囫@@ 1
囵 1
囿 1
國 1
國@@ 1
圍 1
坨 1
坩@@ 1
坯 1
坳 1
坼 1
垢@@ 1
垣 1
垣@@ 1
埂 1
埙 1
埚 1
埸 1
堊@@ 1
報@@ 1
塚@@ 1
塩 1
墩@@ 1
壘 1
壹 1
夙@@ 1
夢 1
夥@@ 1
央 1
奂 1
奕@@ 1
姊 1
姚 1
姜 1
娄@@ 1
娆 1
娣 1
娥 1
娥@@ 1
娱 1
娼 1
媛@@ 1
媞 1
媳 1
媳@@ 1
孑@@ 1
孚@@ 1
孛 1
孟 1
孵 1
學@@ 1
孺 1
宙 1
宙@@ 1
宮@@ 1
寝 1
寢 1
寨@@ 1
寰 1
尋 1
小小@@ 1
尙 1
屌 1
屌@@ 1
層 1
屯@@ 1
岀 1
岐 1
岑 1
峋 1
崴 1
嶙@@ 1
巡 1
巴基@@ 1
巿 1
帑 1
帜@@ 1
帶@@ 1
幌 1
幡 1
幫@@ 1
幽 1
庐@@ 1
庚@@ 1
庶 1
廖@@ 1
弛@@ 1
弩@@ 1
強 1
強@@ 1
彤 1
彦@@ 1
彬 1
影响@@ 1
徉@@ 1
徤 1
徨 1
徳@@ 1
徵@@ 1
徽 1
忑@@ 1
忒 1
怆 1
思议 1
怵@@ 1
恃 1
恫@@ 1
恸@@ 1
惕@@ 1
惦@@ 1
愄 1
愛 1
愛@@ 1
態 1
憨@@ 1
憩@@ 1
應 1
應@@ 1
懵 1
戎 1
戎@@ 1
戕@@ 1
戲@@ 1
戶 1
戾 1
扳 1
抠 1
拋 1
拗@@ 1
拚 1
拷 1
拽@@ 1
挐 1
挲 1
挹@@ 1
捋 1
捎@@ 1
捜 1
捱 1
掇 1
掬 1
掰@@ 1
掳 1
掺 1
揩@@ 1
搀@@ 1
搔 1
搡@@ 1
搦 1
搽 1
摄 1
摟 1
摰 1
撂@@ 1
撅 1
撫 1
撬 1
撵 1
撵@@ 1
撸 1
擎 1
擎@@ 1
擒 1
擘@@ 1
擞 1
擤 1
攝@@ 1
敎 1
敷 1
數 1
旎 1
旖@@ 1
旯 1
昇 1
昭 1
昰 1
晖 1
晤 1
晴 1
晷 1
暇@@ 1
暨 1
札 1
朽@@ 1
杓 1
杭@@ 1
東@@ 1
杳@@ 1
杵 1
枪鱼 1
枫 1
柢@@ 1
柩 1
柿@@ 1
栋@@ 1
栖息@@ 1
桠 1
桤 1
桦@@ 1
桨@@ 1
桩@@ 1
梳 1
棕 1
棺 1
椰 1
椽 1
椽@@ 1
楔 1
楕 1
楦 1
極@@ 1
榆@@ 1
榕@@ 1
榛@@ 1
榴 1
槐@@ 1
樑 1
樣@@ 1
橫@@ 1
檀 1
檢@@ 1
櫃@@ 1
欸 1
殃@@ 1
殇 1
殒@@ 1
殘@@ 1
毀 1
毽@@ 1
氖 1
氣 1
氩@@ 1
氫 1
汐@@ 1
汙@@ 1
汛 1
汝 1
汝@@ 1
汩 1
汩@@ 1
汱 1
汲 1
汶 1
沁@@ 1
沈@@ 1
沮 1
況 1
泗@@ 1
泮 1
泯 1
浚 1
浩 1
浬 1
涎@@ 1
涯 1
涯@@ 1
淇 1
淌@@ 1
淑@@ 1
淤 1
淨@@ 1
淮 1
淸 1
渉 1
渎@@ 1
渤@@ 1
渥 1
湍 1
溅@@ 1
溥 1
溴@@ 1
滤 1
滿 1
漕 1
漱@@ 1
濑@@ 1
濒 1
濶 1
瀑 1
瀚@@ 1
灿 1
炖@@ 1
炬@@ 1
烘 1
烽@@ 1
無 1
煦 1
熠 1
燧 1
爛@@ 1
爲 1
爾 1
爾@@ 1
牆 1
牍 1
犊 1
犒@@ 1
犷 1
狀 1
猕@@ 1
猾@@ 1
獒 1
獨@@ 1
獲 1
玆 1
玎@@ 1
玑 1
玖 1
玳@@ 1
玺 1
珂 1
珐 1
珐@@ 1
現 1
琅 1
琦 1
瑁 1
瑜 1
璃 1
璐@@ 1
環@@ 1
瓢 1
甭@@ 1
甾@@ 1
畦 1
畫 1
當 1
疚@@ 1
疝@@ 1
疱 1
疸@@ 1
痨 1
瘀@@ 1
瘁 1
瘋@@ 1
瘘 1
瘪@@ 1
療 1
癢 1
癣 1
癮 1
皎@@ 1
皙 1
盡 1
盤 1
眇 1
眈 1
眈@@ 1
眯 1
眷 1
睿 1
瞄 1
瞟 1
矜@@ 1
矶 1
矽@@ 1
砒@@ 1
砝@@ 1
砧@@ 1
砺 1
硌 1
硼 1
碘 1
碛 1
碼 1
礙 1
礦@@ 1
祕 1
祟@@ 1
祷 1
禾 1
秦 1
秩 1
種 1
稹 1
窘 1
窣 1
窸 1
竽@@ 1
笙@@ 1
笞 1
筛 1
筵@@ 1
箇@@ 1
箍 1
箍@@ 1
箔@@ 1
箩@@ 1
篆@@ 1
篓 1
篓@@ 1
簟 1
簪 1
籁@@ 1
粝 1
粱@@ 1
糅 1
糜 1
糜@@ 1
糠@@ 1
紀 1
紀@@ 1
約 1
約@@ 1
納 1
級 1
細@@ 1
紹 1
終@@ 1
組 1
組@@ 1
絡 1
給@@ 1
絮 1
縮@@ 1
織 1
纨@@ 1
纭 1
绉@@ 1
绔@@ 1
绮 1
绻 1
绽 1
缀@@ 1
缅 1
缛@@ 1
缦 1
缧 1
缨@@ 1
缰@@ 1
罄@@ 1
罔 1
羅@@ 1
羔@@ 1
羟 1
羸@@ 1
羹@@ 1
翌@@ 1
翱 1
而易见 1
耙@@ 1
耨 1
耷@@ 1
聖@@ 1
聩 1
肓 1
肱@@ 1
肽@@ 1
胁 1
胍 1
胰 1
脅 1
脓 1
腈 1
腥@@ 1
腮@@ 1
腱@@ 1
膈 1
膦 1
臊 1
臌@@ 1
至关@@ 1
臻@@ 1
臼@@ 1
舀@@ 1
舆 1
與 1
舛 1
舜 1
舷 1
舷@@ 1
艄@@ 1
艮@@ 1
芫@@ 1
芯@@ 1
芹 1
芹@@ 1
苑 1
苒 1
苞 1
苞@@ 1
苣 1
苪 1
茎@@ 1
茏 1
茛 1
茬@@ 1
荏@@ 1
荑 1
荞@@ 1
荨@@ 1
荽 1
莅@@ 1
莺@@ 1
莽@@ 1
菅@@ 1
萍@@ 1
萡 1
萬@@ 1
萸 1
葺@@ 1
蒲 1
蓉 1
蓋 1
蓭 1
蓿@@ 1
蔡@@ 1
蔫@@ 1
蕈 1
蕨 1
薮 1
藕@@ 1
藜 1
藝@@ 1
蘭@@ 1
蘸@@ 1
處 1
蚜 1
蛄 1
蛟@@ 1
蛹@@ 1
蜀@@ 1
蜇 1
蜓@@ 1
蝉@@ 1
螋 1
螟 1
蟎 1
蠼 1
術@@ 1
衝 1
衫@@ 1
衾 1
袁@@ 1
袂 1
袄 1
裆 1
裕@@ 1
裘 1
裝@@ 1
複 1
褐 1
褓 1
褓@@ 1
褛 1
褴@@ 1
覺 1
觜 1
觸@@ 1
計 1
計@@ 1
託 1
設 1
訴 1
詈@@ 1
試@@ 1
該 1
誊@@ 1
誌 1
認@@ 1
請@@ 1
論 1
謝 1
謝@@ 1
讃 1
讷 1
讹@@ 1
诅 1
诌 1
诘 1
诡 1
诨@@ 1
谄@@ 1
谏 1
谏@@ 1
谕 1
谟 1
谤@@ 1
谲@@ 1
豔 1
豢@@ 1
貂 1
貉 1
貓 1
貼 1
賈@@ 1
贡 1
贤 1
贪 1
贬 1
贮 1
贼@@ 1
赭@@ 1
趄 1
趔@@ 1
趟@@ 1
趸@@ 1
跎@@ 1
践 1
跺 1
踱 1
踵 1
蹉@@ 1
蹚 1
蹬 1
蹬@@ 1
蹭@@ 1
蹼@@ 1
蹿 1
躹 1
輕 1
轉 1
轧 1
轾 1
辄 1
辕@@ 1
辘 1
辘@@ 1
辫@@ 1
迄 1
迢 1
迢@@ 1
迳@@ 1
逞@@ 1
連 1
遊 1
運@@ 1
過@@ 1
遠 1
遢 1
適@@ 1
遽 1
還 1
郞 1
酥@@ 1
酪@@ 1
酮@@ 1
醍@@ 1
醐@@ 1
醣 1
醫@@ 1
釆 1
釉@@ 1
釋@@ 1
釐 1
釜@@ 1
鉄 1
銥 1
鋶 1
錫@@ 1
錯 1
鐘 1
钒 1
钣 1
钧@@ 1
钨 1
钮@@ 1
钴 1
钸 1
钼 1
铆@@ 1
铇 1
铊 1
铋 1
铱@@ 1
锃@@ 1
锭 1
锰 1
锲@@ 1
锵@@ 1
锹 1
镍@@ 1
镣@@ 1
長 1
門 1
開@@ 1
間 1
闰@@ 1
闵@@ 1
闽@@ 1
阈 1
阎@@ 1
阙@@ 1
阪 1
阮 1
陕@@ 1
陨 1
陲 1
隅 1
隙@@ 1
隱 1
隳 1
隻 1
雁 1
雍@@ 1
離@@ 1
雯@@ 1
雳@@ 1
雹@@ 1
電@@ 1
霖 1
霜@@ 1
靓 1
靖@@ 1
靛 1
鞘@@ 1
鞠 1
鞣@@ 1
頓 1
頸 1
顏@@ 1
類 1
類@@ 1
颌 1
颐@@ 1
颓 1
飕 1
飙 1
飛@@ 1
飨@@ 1
飽 1
餘@@ 1
館 1
餮 1
饕 1
饕@@ 1
饪@@ 1
饲 1
馥 1
駐 1
驗 1
驚 1
驚@@ 1
驮 1
驯 1
骁@@ 1
骊 1
骋@@ 1
骛 1
髋 1
體 1
魚 1
魨 1
魯 1
鮮 1
鯊 1
鰺 1
鲈 1
鲛 1
鲦 1
鲯 1
鳅 1
鳊@@ 1
鳌@@ 1
鳏@@ 1
鸨 1
鸩@@ 1
鸯 1
鸳@@ 1
鸵 1
鸸@@ 1
鹃 1
鹈@@ 1
鹋 1
鹏 1
鹕 1
鹜 1
鹞 1
鹬@@ 1
鹳 1
麋 1
麒@@ 1
麗 1
黃 1
黃@@ 1
黍 1
黔@@ 1
黜 1
黝@@ 1
鼩 1
鼬@@ 1
鼯@@ 1
龅@@ 1
龊 1
龌@@ 1
龚 1
龛 1
﹔ 1
＊ 1
＝ 1
｀ 1
ｃ 1
ｍ 1
ｕ 1
｛ 1
｝ 1
￥ 1
￼ 1
